[PAD] 21128
[unused1] 21127
[unused2] 21126
[unused3] 21125
[unused4] 21124
[unused5] 21123
[unused6] 21122
[unused7] 21121
[unused8] 21120
[unused9] 21119
[unused10] 21118
[unused11] 21117
[unused12] 21116
[unused13] 21115
[unused14] 21114
[unused15] 21113
[unused16] 21112
[unused17] 21111
[unused18] 21110
[unused19] 21109
[unused20] 21108
[unused21] 21107
[unused22] 21106
[unused23] 21105
[unused24] 21104
[unused25] 21103
[unused26] 21102
[unused27] 21101
[unused28] 21100
[unused29] 21099
[unused30] 21098
[unused31] 21097
[unused32] 21096
[unused33] 21095
[unused34] 21094
[unused35] 21093
[unused36] 21092
[unused37] 21091
[unused38] 21090
[unused39] 21089
[unused40] 21088
[unused41] 21087
[unused42] 21086
[unused43] 21085
[unused44] 21084
[unused45] 21083
[unused46] 21082
[unused47] 21081
[unused48] 21080
[unused49] 21079
[unused50] 21078
[unused51] 21077
[unused52] 21076
[unused53] 21075
[unused54] 21074
[unused55] 21073
[unused56] 21072
[unused57] 21071
[unused58] 21070
[unused59] 21069
[unused60] 21068
[unused61] 21067
[unused62] 21066
[unused63] 21065
[unused64] 21064
[unused65] 21063
[unused66] 21062
[unused67] 21061
[unused68] 21060
[unused69] 21059
[unused70] 21058
[unused71] 21057
[unused72] 21056
[unused73] 21055
[unused74] 21054
[unused75] 21053
[unused76] 21052
[unused77] 21051
[unused78] 21050
[unused79] 21049
[unused80] 21048
[unused81] 21047
[unused82] 21046
[unused83] 21045
[unused84] 21044
[unused85] 21043
[unused86] 21042
[unused87] 21041
[unused88] 21040
[unused89] 21039
[unused90] 21038
[unused91] 21037
[unused92] 21036
[unused93] 21035
[unused94] 21034
[unused95] 21033
[unused96] 21032
[unused97] 21031
[unused98] 21030
[unused99] 21029
[UNK] 21028
[CLS] 21027
[SEP] 21026
[MASK] 21025
<S> 21024
<T> 21023
! 21022
" 21021
# 21020
$ 21019
% 21018
& 21017
' 21016
( 21015
) 21014
* 21013
+ 21012
, 21011
- 21010
. 21009
/ 21008
0 21007
1 21006
2 21005
3 21004
4 21003
5 21002
6 21001
7 21000
8 20999
9 20998
: 20997
; 20996
< 20995
= 20994
> 20993
? 20992
@ 20991
[ 20990
\ 20989
] 20988
^ 20987
_ 20986
a 20985
b 20984
c 20983
d 20982
e 20981
f 20980
g 20979
h 20978
i 20977
j 20976
k 20975
l 20974
m 20973
n 20972
o 20971
p 20970
q 20969
r 20968
s 20967
t 20966
u 20965
v 20964
w 20963
x 20962
y 20961
z 20960
{ 20959
| 20958
} 20957
~ 20956
£ 20955
¤ 20954
¥ 20953
§ 20952
© 20951
« 20950
® 20949
° 20948
± 20947
² 20946
³ 20945
µ 20944
· 20943
¹ 20942
º 20941
» 20940
¼ 20939
× 20938
ß 20937
æ 20936
÷ 20935
ø 20934
đ 20933
ŋ 20932
ɔ 20931
ə 20930
ɡ 20929
ʰ 20928
ˇ 20927
ˈ 20926
ˊ 20925
ˋ 20924
ˍ 20923
ː 20922
˙ 20921
˚ 20920
ˢ 20919
α 20918
β 20917
γ 20916
δ 20915
ε 20914
η 20913
θ 20912
ι 20911
κ 20910
λ 20909
μ 20908
ν 20907
ο 20906
π 20905
ρ 20904
ς 20903
σ 20902
τ 20901
υ 20900
φ 20899
χ 20898
ψ 20897
ω 20896
а 20895
б 20894
в 20893
г 20892
д 20891
е 20890
ж 20889
з 20888
и 20887
к 20886
л 20885
м 20884
н 20883
о 20882
п 20881
р 20880
с 20879
т 20878
у 20877
ф 20876
х 20875
ц 20874
ч 20873
ш 20872
ы 20871
ь 20870
я 20869
і 20868
ا 20867
ب 20866
ة 20865
ت 20864
د 20863
ر 20862
س 20861
ع 20860
ل 20859
م 20858
ن 20857
ه 20856
و 20855
ي 20854
۩ 20853
ก 20852
ง 20851
น 20850
ม 20849
ย 20848
ร 20847
อ 20846
า 20845
เ 20844
๑ 20843
་ 20842
ღ 20841
ᄀ 20840
ᄁ 20839
ᄂ 20838
ᄃ 20837
ᄅ 20836
ᄆ 20835
ᄇ 20834
ᄈ 20833
ᄉ 20832
ᄋ 20831
ᄌ 20830
ᄎ 20829
ᄏ 20828
ᄐ 20827
ᄑ 20826
ᄒ 20825
ᅡ 20824
ᅢ 20823
ᅣ 20822
ᅥ 20821
ᅦ 20820
ᅧ 20819
ᅨ 20818
ᅩ 20817
ᅪ 20816
ᅬ 20815
ᅭ 20814
ᅮ 20813
ᅯ 20812
ᅲ 20811
ᅳ 20810
ᅴ 20809
ᅵ 20808
ᆨ 20807
ᆫ 20806
ᆯ 20805
ᆷ 20804
ᆸ 20803
ᆺ 20802
ᆻ 20801
ᆼ 20800
ᗜ 20799
ᵃ 20798
ᵉ 20797
ᵍ 20796
ᵏ 20795
ᵐ 20794
ᵒ 20793
ᵘ 20792
‖ 20791
„ 20790
† 20789
• 20788
‥ 20787
‧ 20786
  20785
‰ 20784
′ 20783
″ 20782
‹ 20781
› 20780
※ 20779
‿ 20778
⁄ 20777
ⁱ 20776
⁺ 20775
ⁿ 20774
₁ 20773
₂ 20772
₃ 20771
₄ 20770
€ 20769
℃ 20768
№ 20767
™ 20766
ⅰ 20765
ⅱ 20764
ⅲ 20763
ⅳ 20762
ⅴ 20761
← 20760
↑ 20759
→ 20758
↓ 20757
↔ 20756
↗ 20755
↘ 20754
⇒ 20753
∀ 20752
− 20751
∕ 20750
∙ 20749
√ 20748
∞ 20747
∟ 20746
∠ 20745
∣ 20744
∥ 20743
∩ 20742
∮ 20741
∶ 20740
∼ 20739
∽ 20738
≈ 20737
≒ 20736
≡ 20735
≤ 20734
≥ 20733
≦ 20732
≧ 20731
≪ 20730
≫ 20729
⊙ 20728
⋅ 20727
⋈ 20726
⋯ 20725
⌒ 20724
① 20723
② 20722
③ 20721
④ 20720
⑤ 20719
⑥ 20718
⑦ 20717
⑧ 20716
⑨ 20715
⑩ 20714
⑴ 20713
⑵ 20712
⑶ 20711
⑷ 20710
⑸ 20709
⒈ 20708
⒉ 20707
⒊ 20706
⒋ 20705
ⓒ 20704
ⓔ 20703
ⓘ 20702
─ 20701
━ 20700
│ 20699
┃ 20698
┅ 20697
┆ 20696
┊ 20695
┌ 20694
└ 20693
├ 20692
┣ 20691
═ 20690
║ 20689
╚ 20688
╞ 20687
╠ 20686
╭ 20685
╮ 20684
╯ 20683
╰ 20682
╱ 20681
╳ 20680
▂ 20679
▃ 20678
▅ 20677
▇ 20676
█ 20675
▉ 20674
▋ 20673
▌ 20672
▍ 20671
▎ 20670
■ 20669
□ 20668
▪ 20667
▫ 20666
▬ 20665
▲ 20664
△ 20663
▶ 20662
► 20661
▼ 20660
▽ 20659
◆ 20658
◇ 20657
○ 20656
◎ 20655
● 20654
◕ 20653
◠ 20652
◢ 20651
◤ 20650
☀ 20649
★ 20648
☆ 20647
☕ 20646
☞ 20645
☺ 20644
☼ 20643
♀ 20642
♂ 20641
♠ 20640
♡ 20639
♣ 20638
♥ 20637
♦ 20636
♪ 20635
♫ 20634
♬ 20633
✈ 20632
✔ 20631
✕ 20630
✖ 20629
✦ 20628
✨ 20627
✪ 20626
✰ 20625
✿ 20624
❀ 20623
❤ 20622
➜ 20621
➤ 20620
⦿ 20619
、 20618
。 20617
〃 20616
々 20615
〇 20614
〈 20613
〉 20612
《 20611
》 20610
「 20609
」 20608
『 20607
』 20606
【 20605
】 20604
〓 20603
〔 20602
〕 20601
〖 20600
〗 20599
〜 20598
〝 20597
〞 20596
ぁ 20595
あ 20594
ぃ 20593
い 20592
う 20591
ぇ 20590
え 20589
お 20588
か 20587
き 20586
く 20585
け 20584
こ 20583
さ 20582
し 20581
す 20580
せ 20579
そ 20578
た 20577
ち 20576
っ 20575
つ 20574
て 20573
と 20572
な 20571
に 20570
ぬ 20569
ね 20568
の 20567
は 20566
ひ 20565
ふ 20564
へ 20563
ほ 20562
ま 20561
み 20560
む 20559
め 20558
も 20557
ゃ 20556
や 20555
ゅ 20554
ゆ 20553
ょ 20552
よ 20551
ら 20550
り 20549
る 20548
れ 20547
ろ 20546
わ 20545
を 20544
ん 20543
゜ 20542
ゝ 20541
ァ 20540
ア 20539
ィ 20538
イ 20537
ゥ 20536
ウ 20535
ェ 20534
エ 20533
ォ 20532
オ 20531
カ 20530
キ 20529
ク 20528
ケ 20527
コ 20526
サ 20525
シ 20524
ス 20523
セ 20522
ソ 20521
タ 20520
チ 20519
ッ 20518
ツ 20517
テ 20516
ト 20515
ナ 20514
ニ 20513
ヌ 20512
ネ 20511
ノ 20510
ハ 20509
ヒ 20508
フ 20507
ヘ 20506
ホ 20505
マ 20504
ミ 20503
ム 20502
メ 20501
モ 20500
ャ 20499
ヤ 20498
ュ 20497
ユ 20496
ョ 20495
ヨ 20494
ラ 20493
リ 20492
ル 20491
レ 20490
ロ 20489
ワ 20488
ヲ 20487
ン 20486
ヶ 20485
・ 20484
ー 20483
ヽ 20482
ㄅ 20481
ㄆ 20480
ㄇ 20479
ㄉ 20478
ㄋ 20477
ㄌ 20476
ㄍ 20475
ㄎ 20474
ㄏ 20473
ㄒ 20472
ㄚ 20471
ㄛ 20470
ㄞ 20469
ㄟ 20468
ㄢ 20467
ㄤ 20466
ㄥ 20465
ㄧ 20464
ㄨ 20463
ㆍ 20462
㈦ 20461
㊣ 20460
㎡ 20459
㗎 20458
一 20457
丁 20456
七 20455
万 20454
丈 20453
三 20452
上 20451
下 20450
不 20449
与 20448
丐 20447
丑 20446
专 20445
且 20444
丕 20443
世 20442
丘 20441
丙 20440
业 20439
丛 20438
东 20437
丝 20436
丞 20435
丟 20434
両 20433
丢 20432
两 20431
严 20430
並 20429
丧 20428
丨 20427
个 20426
丫 20425
中 20424
丰 20423
串 20422
临 20421
丶 20420
丸 20419
丹 20418
为 20417
主 20416
丼 20415
丽 20414
举 20413
丿 20412
乂 20411
乃 20410
久 20409
么 20408
义 20407
之 20406
乌 20405
乍 20404
乎 20403
乏 20402
乐 20401
乒 20400
乓 20399
乔 20398
乖 20397
乗 20396
乘 20395
乙 20394
乜 20393
九 20392
乞 20391
也 20390
习 20389
乡 20388
书 20387
乩 20386
买 20385
乱 20384
乳 20383
乾 20382
亀 20381
亂 20380
了 20379
予 20378
争 20377
事 20376
二 20375
于 20374
亏 20373
云 20372
互 20371
五 20370
井 20369
亘 20368
亙 20367
亚 20366
些 20365
亜 20364
亞 20363
亟 20362
亡 20361
亢 20360
交 20359
亥 20358
亦 20357
产 20356
亨 20355
亩 20354
享 20353
京 20352
亭 20351
亮 20350
亲 20349
亳 20348
亵 20347
人 20346
亿 20345
什 20344
仁 20343
仃 20342
仄 20341
仅 20340
仆 20339
仇 20338
今 20337
介 20336
仍 20335
从 20334
仏 20333
仑 20332
仓 20331
仔 20330
仕 20329
他 20328
仗 20327
付 20326
仙 20325
仝 20324
仞 20323
仟 20322
代 20321
令 20320
以 20319
仨 20318
仪 20317
们 20316
仮 20315
仰 20314
仲 20313
件 20312
价 20311
任 20310
份 20309
仿 20308
企 20307
伉 20306
伊 20305
伍 20304
伎 20303
伏 20302
伐 20301
休 20300
伕 20299
众 20298
优 20297
伙 20296
会 20295
伝 20294
伞 20293
伟 20292
传 20291
伢 20290
伤 20289
伦 20288
伪 20287
伫 20286
伯 20285
估 20284
伴 20283
伶 20282
伸 20281
伺 20280
似 20279
伽 20278
佃 20277
但 20276
佇 20275
佈 20274
位 20273
低 20272
住 20271
佐 20270
佑 20269
体 20268
佔 20267
何 20266
佗 20265
佘 20264
余 20263
佚 20262
佛 20261
作 20260
佝 20259
佞 20258
佟 20257
你 20256
佢 20255
佣 20254
佤 20253
佥 20252
佩 20251
佬 20250
佯 20249
佰 20248
佳 20247
併 20246
佶 20245
佻 20244
佼 20243
使 20242
侃 20241
侄 20240
來 20239
侈 20238
例 20237
侍 20236
侏 20235
侑 20234
侖 20233
侗 20232
供 20231
依 20230
侠 20229
価 20228
侣 20227
侥 20226
侦 20225
侧 20224
侨 20223
侬 20222
侮 20221
侯 20220
侵 20219
侶 20218
侷 20217
便 20216
係 20215
促 20214
俄 20213
俊 20212
俎 20211
俏 20210
俐 20209
俑 20208
俗 20207
俘 20206
俚 20205
保 20204
俞 20203
俟 20202
俠 20201
信 20200
俨 20199
俩 20198
俪 20197
俬 20196
俭 20195
修 20194
俯 20193
俱 20192
俳 20191
俸 20190
俺 20189
俾 20188
倆 20187
倉 20186
個 20185
倌 20184
倍 20183
倏 20182
們 20181
倒 20180
倔 20179
倖 20178
倘 20177
候 20176
倚 20175
倜 20174
借 20173
倡 20172
値 20171
倦 20170
倩 20169
倪 20168
倫 20167
倬 20166
倭 20165
倶 20164
债 20163
值 20162
倾 20161
偃 20160
假 20159
偈 20158
偉 20157
偌 20156
偎 20155
偏 20154
偕 20153
做 20152
停 20151
健 20150
側 20149
偵 20148
偶 20147
偷 20146
偻 20145
偽 20144
偿 20143
傀 20142
傅 20141
傍 20140
傑 20139
傘 20138
備 20137
傚 20136
傢 20135
傣 20134
傥 20133
储 20132
傩 20131
催 20130
傭 20129
傲 20128
傳 20127
債 20126
傷 20125
傻 20124
傾 20123
僅 20122
働 20121
像 20120
僑 20119
僕 20118
僖 20117
僚 20116
僥 20115
僧 20114
僭 20113
僮 20112
僱 20111
僵 20110
價 20109
僻 20108
儀 20107
儂 20106
億 20105
儆 20104
儉 20103
儋 20102
儒 20101
儕 20100
儘 20099
償 20098
儡 20097
優 20096
儲 20095
儷 20094
儼 20093
儿 20092
兀 20091
允 20090
元 20089
兄 20088
充 20087
兆 20086
兇 20085
先 20084
光 20083
克 20082
兌 20081
免 20080
児 20079
兑 20078
兒 20077
兔 20076
兖 20075
党 20074
兜 20073
兢 20072
入 20071
內 20070
全 20069
兩 20068
八 20067
公 20066
六 20065
兮 20064
兰 20063
共 20062
兲 20061
关 20060
兴 20059
兵 20058
其 20057
具 20056
典 20055
兹 20054
养 20053
兼 20052
兽 20051
冀 20050
内 20049
円 20048
冇 20047
冈 20046
冉 20045
冊 20044
册 20043
再 20042
冏 20041
冒 20040
冕 20039
冗 20038
写 20037
军 20036
农 20035
冠 20034
冢 20033
冤 20032
冥 20031
冨 20030
冪 20029
冬 20028
冯 20027
冰 20026
冲 20025
决 20024
况 20023
冶 20022
冷 20021
冻 20020
冼 20019
冽 20018
冾 20017
净 20016
凄 20015
准 20014
凇 20013
凈 20012
凉 20011
凋 20010
凌 20009
凍 20008
减 20007
凑 20006
凛 20005
凜 20004
凝 20003
几 20002
凡 20001
凤 20000
処 19999
凪 19998
凭 19997
凯 19996
凰 19995
凱 19994
凳 19993
凶 19992
凸 19991
凹 19990
出 19989
击 19988
函 19987
凿 19986
刀 19985
刁 19984
刃 19983
分 19982
切 19981
刈 19980
刊 19979
刍 19978
刎 19977
刑 19976
划 19975
列 19974
刘 19973
则 19972
刚 19971
创 19970
初 19969
删 19968
判 19967
別 19966
刨 19965
利 19964
刪 19963
别 19962
刮 19961
到 19960
制 19959
刷 19958
券 19957
刹 19956
刺 19955
刻 19954
刽 19953
剁 19952
剂 19951
剃 19950
則 19949
剉 19948
削 19947
剋 19946
剌 19945
前 19944
剎 19943
剐 19942
剑 19941
剔 19940
剖 19939
剛 19938
剜 19937
剝 19936
剣 19935
剤 19934
剥 19933
剧 19932
剩 19931
剪 19930
副 19929
割 19928
創 19927
剷 19926
剽 19925
剿 19924
劃 19923
劇 19922
劈 19921
劉 19920
劊 19919
劍 19918
劏 19917
劑 19916
力 19915
劝 19914
办 19913
功 19912
加 19911
务 19910
劣 19909
动 19908
助 19907
努 19906
劫 19905
劭 19904
励 19903
劲 19902
劳 19901
労 19900
劵 19899
効 19898
劾 19897
势 19896
勁 19895
勃 19894
勇 19893
勉 19892
勋 19891
勐 19890
勒 19889
動 19888
勖 19887
勘 19886
務 19885
勛 19884
勝 19883
勞 19882
募 19881
勢 19880
勤 19879
勧 19878
勳 19877
勵 19876
勸 19875
勺 19874
勻 19873
勾 19872
勿 19871
匀 19870
包 19869
匆 19868
匈 19867
匍 19866
匐 19865
匕 19864
化 19863
北 19862
匙 19861
匝 19860
匠 19859
匡 19858
匣 19857
匪 19856
匮 19855
匯 19854
匱 19853
匹 19852
区 19851
医 19850
匾 19849
匿 19848
區 19847
十 19846
千 19845
卅 19844
升 19843
午 19842
卉 19841
半 19840
卍 19839
华 19838
协 19837
卑 19836
卒 19835
卓 19834
協 19833
单 19832
卖 19831
南 19830
単 19829
博 19828
卜 19827
卞 19826
卟 19825
占 19824
卡 19823
卢 19822
卤 19821
卦 19820
卧 19819
卫 19818
卮 19817
卯 19816
印 19815
危 19814
即 19813
却 19812
卵 19811
卷 19810
卸 19809
卻 19808
卿 19807
厂 19806
厄 19805
厅 19804
历 19803
厉 19802
压 19801
厌 19800
厕 19799
厘 19798
厚 19797
厝 19796
原 19795
厢 19794
厥 19793
厦 19792
厨 19791
厩 19790
厭 19789
厮 19788
厲 19787
厳 19786
去 19785
县 19784
叁 19783
参 19782
參 19781
又 19780
叉 19779
及 19778
友 19777
双 19776
反 19775
収 19774
发 19773
叔 19772
取 19771
受 19770
变 19769
叙 19768
叛 19767
叟 19766
叠 19765
叡 19764
叢 19763
口 19762
古 19761
句 19760
另 19759
叨 19758
叩 19757
只 19756
叫 19755
召 19754
叭 19753
叮 19752
可 19751
台 19750
叱 19749
史 19748
右 19747
叵 19746
叶 19745
号 19744
司 19743
叹 19742
叻 19741
叼 19740
叽 19739
吁 19738
吃 19737
各 19736
吆 19735
合 19734
吉 19733
吊 19732
吋 19731
同 19730
名 19729
后 19728
吏 19727
吐 19726
向 19725
吒 19724
吓 19723
吕 19722
吖 19721
吗 19720
君 19719
吝 19718
吞 19717
吟 19716
吠 19715
吡 19714
否 19713
吧 19712
吨 19711
吩 19710
含 19709
听 19708
吭 19707
吮 19706
启 19705
吱 19704
吳 19703
吴 19702
吵 19701
吶 19700
吸 19699
吹 19698
吻 19697
吼 19696
吽 19695
吾 19694
呀 19693
呂 19692
呃 19691
呆 19690
呈 19689
告 19688
呋 19687
呎 19686
呐 19685
呓 19684
呕 19683
呗 19682
员 19681
呛 19680
呜 19679
呢 19678
呤 19677
呦 19676
周 19675
呱 19674
呲 19673
味 19672
呵 19671
呷 19670
呸 19669
呻 19668
呼 19667
命 19666
咀 19665
咁 19664
咂 19663
咄 19662
咆 19661
咋 19660
和 19659
咎 19658
咏 19657
咐 19656
咒 19655
咔 19654
咕 19653
咖 19652
咗 19651
咘 19650
咙 19649
咚 19648
咛 19647
咣 19646
咤 19645
咦 19644
咧 19643
咨 19642
咩 19641
咪 19640
咫 19639
咬 19638
咭 19637
咯 19636
咱 19635
咲 19634
咳 19633
咸 19632
咻 19631
咽 19630
咿 19629
哀 19628
品 19627
哂 19626
哄 19625
哆 19624
哇 19623
哈 19622
哉 19621
哋 19620
哌 19619
响 19618
哎 19617
哏 19616
哐 19615
哑 19614
哒 19613
哔 19612
哗 19611
哟 19610
員 19609
哥 19608
哦 19607
哧 19606
哨 19605
哩 19604
哪 19603
哭 19602
哮 19601
哲 19600
哺 19599
哼 19598
哽 19597
唁 19596
唄 19595
唆 19594
唇 19593
唉 19592
唏 19591
唐 19590
唑 19589
唔 19588
唠 19587
唤 19586
唧 19585
唬 19584
售 19583
唯 19582
唰 19581
唱 19580
唳 19579
唷 19578
唸 19577
唾 19576
啃 19575
啄 19574
商 19573
啉 19572
啊 19571
問 19570
啓 19569
啕 19568
啖 19567
啜 19566
啞 19565
啟 19564
啡 19563
啤 19562
啥 19561
啦 19560
啧 19559
啪 19558
啫 19557
啬 19556
啮 19555
啰 19554
啱 19553
啲 19552
啵 19551
啶 19550
啷 19549
啸 19548
啻 19547
啼 19546
啾 19545
喀 19544
喂 19543
喃 19542
善 19541
喆 19540
喇 19539
喉 19538
喊 19537
喋 19536
喎 19535
喏 19534
喔 19533
喘 19532
喙 19531
喚 19530
喜 19529
喝 19528
喟 19527
喧 19526
喪 19525
喫 19524
喬 19523
單 19522
喰 19521
喱 19520
喲 19519
喳 19518
喵 19517
営 19516
喷 19515
喹 19514
喺 19513
喻 19512
喽 19511
嗅 19510
嗆 19509
嗇 19508
嗎 19507
嗑 19506
嗒 19505
嗓 19504
嗔 19503
嗖 19502
嗚 19501
嗜 19500
嗝 19499
嗟 19498
嗡 19497
嗣 19496
嗤 19495
嗦 19494
嗨 19493
嗪 19492
嗬 19491
嗯 19490
嗰 19489
嗲 19488
嗳 19487
嗶 19486
嗷 19485
嗽 19484
嘀 19483
嘅 19482
嘆 19481
嘈 19480
嘉 19479
嘌 19478
嘍 19477
嘎 19476
嘔 19475
嘖 19474
嘗 19473
嘘 19472
嘚 19471
嘛 19470
嘜 19469
嘞 19468
嘟 19467
嘢 19466
嘣 19465
嘤 19464
嘧 19463
嘩 19462
嘭 19461
嘮 19460
嘯 19459
嘰 19458
嘱 19457
嘲 19456
嘴 19455
嘶 19454
嘸 19453
嘹 19452
嘻 19451
嘿 19450
噁 19449
噌 19448
噎 19447
噓 19446
噔 19445
噗 19444
噙 19443
噜 19442
噠 19441
噢 19440
噤 19439
器 19438
噩 19437
噪 19436
噬 19435
噱 19434
噴 19433
噶 19432
噸 19431
噹 19430
噻 19429
噼 19428
嚀 19427
嚇 19426
嚎 19425
嚏 19424
嚐 19423
嚓 19422
嚕 19421
嚟 19420
嚣 19419
嚥 19418
嚨 19417
嚮 19416
嚴 19415
嚷 19414
嚼 19413
囂 19412
囉 19411
囊 19410
囍 19409
囑 19408
囔 19407
囗 19406
囚 19405
四 19404
囝 19403
回 19402
囟 19401
因 19400
囡 19399
团 19398
団 19397
囤 19396
囧 19395
囪 19394
囫 19393
园 19392
困 19391
囱 19390
囲 19389
図 19388
围 19387
囹 19386
固 19385
国 19384
图 19383
囿 19382
圃 19381
圄 19380
圆 19379
圈 19378
國 19377
圍 19376
圏 19375
園 19374
圓 19373
圖 19372
團 19371
圜 19370
土 19369
圣 19368
圧 19367
在 19366
圩 19365
圭 19364
地 19363
圳 19362
场 19361
圻 19360
圾 19359
址 19358
坂 19357
均 19356
坊 19355
坍 19354
坎 19353
坏 19352
坐 19351
坑 19350
块 19349
坚 19348
坛 19347
坝 19346
坞 19345
坟 19344
坠 19343
坡 19342
坤 19341
坦 19340
坨 19339
坪 19338
坯 19337
坳 19336
坵 19335
坷 19334
垂 19333
垃 19332
垄 19331
型 19330
垒 19329
垚 19328
垛 19327
垠 19326
垢 19325
垣 19324
垦 19323
垩 19322
垫 19321
垭 19320
垮 19319
垵 19318
埂 19317
埃 19316
埋 19315
城 19314
埔 19313
埕 19312
埗 19311
域 19310
埠 19309
埤 19308
埵 19307
執 19306
埸 19305
培 19304
基 19303
埼 19302
堀 19301
堂 19300
堃 19299
堅 19298
堆 19297
堇 19296
堑 19295
堕 19294
堙 19293
堡 19292
堤 19291
堪 19290
堯 19289
堰 19288
報 19287
場 19286
堵 19285
堺 19284
堿 19283
塊 19282
塌 19281
塑 19280
塔 19279
塗 19278
塘 19277
塚 19276
塞 19275
塢 19274
塩 19273
填 19272
塬 19271
塭 19270
塵 19269
塾 19268
墀 19267
境 19266
墅 19265
墉 19264
墊 19263
墒 19262
墓 19261
増 19260
墘 19259
墙 19258
墜 19257
增 19256
墟 19255
墨 19254
墩 19253
墮 19252
墳 19251
墻 19250
墾 19249
壁 19248
壅 19247
壆 19246
壇 19245
壊 19244
壑 19243
壓 19242
壕 19241
壘 19240
壞 19239
壟 19238
壢 19237
壤 19236
壩 19235
士 19234
壬 19233
壮 19232
壯 19231
声 19230
売 19229
壳 19228
壶 19227
壹 19226
壺 19225
壽 19224
处 19223
备 19222
変 19221
复 19220
夏 19219
夔 19218
夕 19217
外 19216
夙 19215
多 19214
夜 19213
够 19212
夠 19211
夢 19210
夥 19209
大 19208
天 19207
太 19206
夫 19205
夭 19204
央 19203
夯 19202
失 19201
头 19200
夷 19199
夸 19198
夹 19197
夺 19196
夾 19195
奂 19194
奄 19193
奇 19192
奈 19191
奉 19190
奋 19189
奎 19188
奏 19187
奐 19186
契 19185
奔 19184
奕 19183
奖 19182
套 19181
奘 19180
奚 19179
奠 19178
奢 19177
奥 19176
奧 19175
奪 19174
奬 19173
奮 19172
女 19171
奴 19170
奶 19169
奸 19168
她 19167
好 19166
如 19165
妃 19164
妄 19163
妆 19162
妇 19161
妈 19160
妊 19159
妍 19158
妒 19157
妓 19156
妖 19155
妘 19154
妙 19153
妝 19152
妞 19151
妣 19150
妤 19149
妥 19148
妨 19147
妩 19146
妪 19145
妮 19144
妲 19143
妳 19142
妹 19141
妻 19140
妾 19139
姆 19138
姉 19137
姊 19136
始 19135
姍 19134
姐 19133
姑 19132
姒 19131
姓 19130
委 19129
姗 19128
姚 19127
姜 19126
姝 19125
姣 19124
姥 19123
姦 19122
姨 19121
姪 19120
姫 19119
姬 19118
姹 19117
姻 19116
姿 19115
威 19114
娃 19113
娄 19112
娅 19111
娆 19110
娇 19109
娉 19108
娑 19107
娓 19106
娘 19105
娛 19104
娜 19103
娟 19102
娠 19101
娣 19100
娥 19099
娩 19098
娱 19097
娲 19096
娴 19095
娶 19094
娼 19093
婀 19092
婁 19091
婆 19090
婉 19089
婊 19088
婕 19087
婚 19086
婢 19085
婦 19084
婧 19083
婪 19082
婭 19081
婴 19080
婵 19079
婶 19078
婷 19077
婺 19076
婿 19075
媒 19074
媚 19073
媛 19072
媞 19071
媧 19070
媲 19069
媳 19068
媽 19067
媾 19066
嫁 19065
嫂 19064
嫉 19063
嫌 19062
嫑 19061
嫔 19060
嫖 19059
嫘 19058
嫚 19057
嫡 19056
嫣 19055
嫦 19054
嫩 19053
嫲 19052
嫵 19051
嫻 19050
嬅 19049
嬉 19048
嬌 19047
嬗 19046
嬛 19045
嬢 19044
嬤 19043
嬪 19042
嬰 19041
嬴 19040
嬷 19039
嬸 19038
嬿 19037
孀 19036
孃 19035
子 19034
孑 19033
孔 19032
孕 19031
孖 19030
字 19029
存 19028
孙 19027
孚 19026
孛 19025
孜 19024
孝 19023
孟 19022
孢 19021
季 19020
孤 19019
学 19018
孩 19017
孪 19016
孫 19015
孬 19014
孰 19013
孱 19012
孳 19011
孵 19010
學 19009
孺 19008
孽 19007
孿 19006
宁 19005
它 19004
宅 19003
宇 19002
守 19001
安 19000
宋 18999
完 18998
宏 18997
宓 18996
宕 18995
宗 18994
官 18993
宙 18992
定 18991
宛 18990
宜 18989
宝 18988
实 18987
実 18986
宠 18985
审 18984
客 18983
宣 18982
室 18981
宥 18980
宦 18979
宪 18978
宫 18977
宮 18976
宰 18975
害 18974
宴 18973
宵 18972
家 18971
宸 18970
容 18969
宽 18968
宾 18967
宿 18966
寂 18965
寄 18964
寅 18963
密 18962
寇 18961
富 18960
寐 18959
寒 18958
寓 18957
寛 18956
寝 18955
寞 18954
察 18953
寡 18952
寢 18951
寥 18950
實 18949
寧 18948
寨 18947
審 18946
寫 18945
寬 18944
寮 18943
寰 18942
寵 18941
寶 18940
寸 18939
对 18938
寺 18937
寻 18936
导 18935
対 18934
寿 18933
封 18932
専 18931
射 18930
将 18929
將 18928
專 18927
尉 18926
尊 18925
尋 18924
對 18923
導 18922
小 18921
少 18920
尔 18919
尕 18918
尖 18917
尘 18916
尚 18915
尝 18914
尤 18913
尧 18912
尬 18911
就 18910
尴 18909
尷 18908
尸 18907
尹 18906
尺 18905
尻 18904
尼 18903
尽 18902
尾 18901
尿 18900
局 18899
屁 18898
层 18897
屄 18896
居 18895
屆 18894
屈 18893
屉 18892
届 18891
屋 18890
屌 18889
屍 18888
屎 18887
屏 18886
屐 18885
屑 18884
展 18883
屜 18882
属 18881
屠 18880
屡 18879
屢 18878
層 18877
履 18876
屬 18875
屯 18874
山 18873
屹 18872
屿 18871
岀 18870
岁 18869
岂 18868
岌 18867
岐 18866
岑 18865
岔 18864
岖 18863
岗 18862
岘 18861
岙 18860
岚 18859
岛 18858
岡 18857
岩 18856
岫 18855
岬 18854
岭 18853
岱 18852
岳 18851
岷 18850
岸 18849
峇 18848
峋 18847
峒 18846
峙 18845
峡 18844
峤 18843
峥 18842
峦 18841
峨 18840
峪 18839
峭 18838
峯 18837
峰 18836
峴 18835
島 18834
峻 18833
峽 18832
崁 18831
崂 18830
崆 18829
崇 18828
崎 18827
崑 18826
崔 18825
崖 18824
崗 18823
崙 18822
崛 18821
崧 18820
崩 18819
崭 18818
崴 18817
崽 18816
嵇 18815
嵊 18814
嵋 18813
嵌 18812
嵐 18811
嵘 18810
嵩 18809
嵬 18808
嵯 18807
嶂 18806
嶄 18805
嶇 18804
嶋 18803
嶙 18802
嶺 18801
嶼 18800
嶽 18799
巅 18798
巍 18797
巒 18796
巔 18795
巖 18794
川 18793
州 18792
巡 18791
巢 18790
工 18789
左 18788
巧 18787
巨 18786
巩 18785
巫 18784
差 18783
己 18782
已 18781
巳 18780
巴 18779
巷 18778
巻 18777
巽 18776
巾 18775
巿 18774
币 18773
市 18772
布 18771
帅 18770
帆 18769
师 18768
希 18767
帐 18766
帑 18765
帕 18764
帖 18763
帘 18762
帚 18761
帛 18760
帜 18759
帝 18758
帥 18757
带 18756
帧 18755
師 18754
席 18753
帮 18752
帯 18751
帰 18750
帳 18749
帶 18748
帷 18747
常 18746
帼 18745
帽 18744
幀 18743
幂 18742
幄 18741
幅 18740
幌 18739
幔 18738
幕 18737
幟 18736
幡 18735
幢 18734
幣 18733
幫 18732
干 18731
平 18730
年 18729
并 18728
幸 18727
幹 18726
幺 18725
幻 18724
幼 18723
幽 18722
幾 18721
广 18720
庁 18719
広 18718
庄 18717
庆 18716
庇 18715
床 18714
序 18713
庐 18712
库 18711
应 18710
底 18709
庖 18708
店 18707
庙 18706
庚 18705
府 18704
庞 18703
废 18702
庠 18701
度 18700
座 18699
庫 18698
庭 18697
庵 18696
庶 18695
康 18694
庸 18693
庹 18692
庾 18691
廁 18690
廂 18689
廃 18688
廈 18687
廉 18686
廊 18685
廓 18684
廖 18683
廚 18682
廝 18681
廟 18680
廠 18679
廢 18678
廣 18677
廬 18676
廳 18675
延 18674
廷 18673
建 18672
廿 18671
开 18670
弁 18669
异 18668
弃 18667
弄 18666
弈 18665
弊 18664
弋 18663
式 18662
弑 18661
弒 18660
弓 18659
弔 18658
引 18657
弗 18656
弘 18655
弛 18654
弟 18653
张 18652
弥 18651
弦 18650
弧 18649
弩 18648
弭 18647
弯 18646
弱 18645
張 18644
強 18643
弹 18642
强 18641
弼 18640
弾 18639
彅 18638
彆 18637
彈 18636
彌 18635
彎 18634
归 18633
当 18632
录 18631
彗 18630
彙 18629
彝 18628
形 18627
彤 18626
彥 18625
彦 18624
彧 18623
彩 18622
彪 18621
彫 18620
彬 18619
彭 18618
彰 18617
影 18616
彷 18615
役 18614
彻 18613
彼 18612
彿 18611
往 18610
征 18609
径 18608
待 18607
徇 18606
很 18605
徉 18604
徊 18603
律 18602
後 18601
徐 18600
徑 18599
徒 18598
従 18597
徕 18596
得 18595
徘 18594
徙 18593
徜 18592
從 18591
徠 18590
御 18589
徨 18588
復 18587
循 18586
徬 18585
微 18584
徳 18583
徴 18582
徵 18581
德 18580
徹 18579
徼 18578
徽 18577
心 18576
必 18575
忆 18574
忌 18573
忍 18572
忏 18571
忐 18570
忑 18569
忒 18568
忖 18567
志 18566
忘 18565
忙 18564
応 18563
忠 18562
忡 18561
忤 18560
忧 18559
忪 18558
快 18557
忱 18556
念 18555
忻 18554
忽 18553
忿 18552
怀 18551
态 18550
怂 18549
怅 18548
怆 18547
怎 18546
怏 18545
怒 18544
怔 18543
怕 18542
怖 18541
怙 18540
怜 18539
思 18538
怠 18537
怡 18536
急 18535
怦 18534
性 18533
怨 18532
怪 18531
怯 18530
怵 18529
总 18528
怼 18527
恁 18526
恃 18525
恆 18524
恋 18523
恍 18522
恐 18521
恒 18520
恕 18519
恙 18518
恚 18517
恢 18516
恣 18515
恤 18514
恥 18513
恨 18512
恩 18511
恪 18510
恫 18509
恬 18508
恭 18507
息 18506
恰 18505
恳 18504
恵 18503
恶 18502
恸 18501
恺 18500
恻 18499
恼 18498
恿 18497
悄 18496
悅 18495
悉 18494
悌 18493
悍 18492
悔 18491
悖 18490
悚 18489
悟 18488
悠 18487
患 18486
悦 18485
您 18484
悩 18483
悪 18482
悬 18481
悯 18480
悱 18479
悲 18478
悴 18477
悵 18476
悶 18475
悸 18474
悻 18473
悼 18472
悽 18471
情 18470
惆 18469
惇 18468
惊 18467
惋 18466
惑 18465
惕 18464
惘 18463
惚 18462
惜 18461
惟 18460
惠 18459
惡 18458
惦 18457
惧 18456
惨 18455
惩 18454
惫 18453
惬 18452
惭 18451
惮 18450
惯 18449
惰 18448
惱 18447
想 18446
惴 18445
惶 18444
惹 18443
惺 18442
愁 18441
愆 18440
愈 18439
愉 18438
愍 18437
意 18436
愕 18435
愚 18434
愛 18433
愜 18432
感 18431
愣 18430
愤 18429
愧 18428
愫 18427
愷 18426
愿 18425
慄 18424
慈 18423
態 18422
慌 18421
慎 18420
慑 18419
慕 18418
慘 18417
慚 18416
慟 18415
慢 18414
慣 18413
慧 18412
慨 18411
慫 18410
慮 18409
慰 18408
慳 18407
慵 18406
慶 18405
慷 18404
慾 18403
憂 18402
憊 18401
憋 18400
憎 18399
憐 18398
憑 18397
憔 18396
憚 18395
憤 18394
憧 18393
憨 18392
憩 18391
憫 18390
憬 18389
憲 18388
憶 18387
憾 18386
懂 18385
懇 18384
懈 18383
應 18382
懊 18381
懋 18380
懑 18379
懒 18378
懦 18377
懲 18376
懵 18375
懶 18374
懷 18373
懸 18372
懺 18371
懼 18370
懾 18369
懿 18368
戀 18367
戈 18366
戊 18365
戌 18364
戍 18363
戎 18362
戏 18361
成 18360
我 18359
戒 18358
戕 18357
或 18356
战 18355
戚 18354
戛 18353
戟 18352
戡 18351
戦 18350
截 18349
戬 18348
戮 18347
戰 18346
戲 18345
戳 18344
戴 18343
戶 18342
户 18341
戸 18340
戻 18339
戾 18338
房 18337
所 18336
扁 18335
扇 18334
扈 18333
扉 18332
手 18331
才 18330
扎 18329
扑 18328
扒 18327
打 18326
扔 18325
払 18324
托 18323
扛 18322
扣 18321
扦 18320
执 18319
扩 18318
扪 18317
扫 18316
扬 18315
扭 18314
扮 18313
扯 18312
扰 18311
扱 18310
扳 18309
扶 18308
批 18307
扼 18306
找 18305
承 18304
技 18303
抄 18302
抉 18301
把 18300
抑 18299
抒 18298
抓 18297
投 18296
抖 18295
抗 18294
折 18293
抚 18292
抛 18291
抜 18290
択 18289
抟 18288
抠 18287
抡 18286
抢 18285
护 18284
报 18283
抨 18282
披 18281
抬 18280
抱 18279
抵 18278
抹 18277
押 18276
抽 18275
抿 18274
拂 18273
拄 18272
担 18271
拆 18270
拇 18269
拈 18268
拉 18267
拋 18266
拌 18265
拍 18264
拎 18263
拐 18262
拒 18261
拓 18260
拔 18259
拖 18258
拗 18257
拘 18256
拙 18255
拚 18254
招 18253
拜 18252
拟 18251
拡 18250
拢 18249
拣 18248
拥 18247
拦 18246
拧 18245
拨 18244
择 18243
括 18242
拭 18241
拮 18240
拯 18239
拱 18238
拳 18237
拴 18236
拷 18235
拼 18234
拽 18233
拾 18232
拿 18231
持 18230
挂 18229
指 18228
挈 18227
按 18226
挎 18225
挑 18224
挖 18223
挙 18222
挚 18221
挛 18220
挝 18219
挞 18218
挟 18217
挠 18216
挡 18215
挣 18214
挤 18213
挥 18212
挨 18211
挪 18210
挫 18209
振 18208
挲 18207
挹 18206
挺 18205
挽 18204
挾 18203
捂 18202
捅 18201
捆 18200
捉 18199
捋 18198
捌 18197
捍 18196
捎 18195
捏 18194
捐 18193
捕 18192
捞 18191
损 18190
捡 18189
换 18188
捣 18187
捧 18186
捨 18185
捩 18184
据 18183
捱 18182
捲 18181
捶 18180
捷 18179
捺 18178
捻 18177
掀 18176
掂 18175
掃 18174
掇 18173
授 18172
掉 18171
掌 18170
掏 18169
掐 18168
排 18167
掖 18166
掘 18165
掙 18164
掛 18163
掠 18162
採 18161
探 18160
掣 18159
接 18158
控 18157
推 18156
掩 18155
措 18154
掬 18153
掰 18152
掲 18151
掳 18150
掴 18149
掷 18148
掸 18147
掺 18146
揀 18145
揃 18144
揄 18143
揆 18142
揉 18141
揍 18140
描 18139
提 18138
插 18137
揖 18136
揚 18135
換 18134
握 18133
揣 18132
揩 18131
揪 18130
揭 18129
揮 18128
援 18127
揶 18126
揸 18125
揹 18124
揽 18123
搀 18122
搁 18121
搂 18120
搅 18119
損 18118
搏 18117
搐 18116
搓 18115
搔 18114
搖 18113
搗 18112
搜 18111
搞 18110
搡 18109
搪 18108
搬 18107
搭 18106
搵 18105
搶 18104
携 18103
搽 18102
摀 18101
摁 18100
摄 18099
摆 18098
摇 18097
摈 18096
摊 18095
摒 18094
摔 18093
摘 18092
摞 18091
摟 18090
摧 18089
摩 18088
摯 18087
摳 18086
摸 18085
摹 18084
摺 18083
摻 18082
撂 18081
撃 18080
撅 18079
撇 18078
撈 18077
撐 18076
撑 18075
撒 18074
撓 18073
撕 18072
撚 18071
撞 18070
撤 18069
撥 18068
撩 18067
撫 18066
撬 18065
播 18064
撮 18063
撰 18062
撲 18061
撵 18060
撷 18059
撸 18058
撻 18057
撼 18056
撿 18055
擀 18054
擁 18053
擂 18052
擄 18051
擅 18050
擇 18049
擊 18048
擋 18047
操 18046
擎 18045
擒 18044
擔 18043
擘 18042
據 18041
擞 18040
擠 18039
擡 18038
擢 18037
擦 18036
擬 18035
擰 18034
擱 18033
擲 18032
擴 18031
擷 18030
擺 18029
擼 18028
擾 18027
攀 18026
攏 18025
攒 18024
攔 18023
攘 18022
攙 18021
攜 18020
攝 18019
攞 18018
攢 18017
攣 18016
攤 18015
攥 18014
攪 18013
攫 18012
攬 18011
支 18010
收 18009
攸 18008
改 18007
攻 18006
放 18005
政 18004
故 18003
效 18002
敌 18001
敍 18000
敎 17999
敏 17998
救 17997
敕 17996
敖 17995
敗 17994
敘 17993
教 17992
敛 17991
敝 17990
敞 17989
敢 17988
散 17987
敦 17986
敬 17985
数 17984
敲 17983
整 17982
敵 17981
敷 17980
數 17979
斂 17978
斃 17977
文 17976
斋 17975
斌 17974
斎 17973
斐 17972
斑 17971
斓 17970
斗 17969
料 17968
斛 17967
斜 17966
斟 17965
斡 17964
斤 17963
斥 17962
斧 17961
斩 17960
斫 17959
斬 17958
断 17957
斯 17956
新 17955
斷 17954
方 17953
於 17952
施 17951
旁 17950
旃 17949
旅 17948
旋 17947
旌 17946
旎 17945
族 17944
旖 17943
旗 17942
无 17941
既 17940
日 17939
旦 17938
旧 17937
旨 17936
早 17935
旬 17934
旭 17933
旮 17932
旱 17931
时 17930
旷 17929
旺 17928
旻 17927
昀 17926
昂 17925
昆 17924
昇 17923
昉 17922
昊 17921
昌 17920
明 17919
昏 17918
易 17917
昔 17916
昕 17915
昙 17914
星 17913
映 17912
春 17911
昧 17910
昨 17909
昭 17908
是 17907
昱 17906
昴 17905
昵 17904
昶 17903
昼 17902
显 17901
晁 17900
時 17899
晃 17898
晉 17897
晋 17896
晌 17895
晏 17894
晒 17893
晓 17892
晔 17891
晕 17890
晖 17889
晗 17888
晚 17887
晝 17886
晞 17885
晟 17884
晤 17883
晦 17882
晨 17881
晩 17880
普 17879
景 17878
晰 17877
晴 17876
晶 17875
晷 17874
智 17873
晾 17872
暂 17871
暄 17870
暇 17869
暈 17868
暉 17867
暌 17866
暐 17865
暑 17864
暖 17863
暗 17862
暝 17861
暢 17860
暧 17859
暨 17858
暫 17857
暮 17856
暱 17855
暴 17854
暸 17853
暹 17852
曄 17851
曆 17850
曇 17849
曉 17848
曖 17847
曙 17846
曜 17845
曝 17844
曠 17843
曦 17842
曬 17841
曰 17840
曲 17839
曳 17838
更 17837
書 17836
曹 17835
曼 17834
曾 17833
替 17832
最 17831
會 17830
月 17829
有 17828
朋 17827
服 17826
朐 17825
朔 17824
朕 17823
朗 17822
望 17821
朝 17820
期 17819
朦 17818
朧 17817
木 17816
未 17815
末 17814
本 17813
札 17812
朮 17811
术 17810
朱 17809
朴 17808
朵 17807
机 17806
朽 17805
杀 17804
杂 17803
权 17802
杆 17801
杈 17800
杉 17799
李 17798
杏 17797
材 17796
村 17795
杓 17794
杖 17793
杜 17792
杞 17791
束 17790
杠 17789
条 17788
来 17787
杨 17786
杭 17785
杯 17784
杰 17783
東 17782
杳 17781
杵 17780
杷 17779
杼 17778
松 17777
板 17776
极 17775
构 17774
枇 17773
枉 17772
枋 17771
析 17770
枕 17769
林 17768
枚 17767
果 17766
枝 17765
枢 17764
枣 17763
枪 17762
枫 17761
枭 17760
枯 17759
枰 17758
枱 17757
枳 17756
架 17755
枷 17754
枸 17753
柄 17752
柏 17751
某 17750
柑 17749
柒 17748
染 17747
柔 17746
柘 17745
柚 17744
柜 17743
柞 17742
柠 17741
柢 17740
查 17739
柩 17738
柬 17737
柯 17736
柱 17735
柳 17734
柴 17733
柵 17732
査 17731
柿 17730
栀 17729
栃 17728
栄 17727
栅 17726
标 17725
栈 17724
栉 17723
栋 17722
栎 17721
栏 17720
树 17719
栓 17718
栖 17717
栗 17716
校 17715
栩 17714
株 17713
样 17712
核 17711
根 17710
格 17709
栽 17708
栾 17707
桀 17706
桁 17705
桂 17704
桃 17703
桅 17702
框 17701
案 17700
桉 17699
桌 17698
桎 17697
桐 17696
桑 17695
桓 17694
桔 17693
桜 17692
桠 17691
桡 17690
桢 17689
档 17688
桥 17687
桦 17686
桧 17685
桨 17684
桩 17683
桶 17682
桿 17681
梁 17680
梅 17679
梆 17678
梏 17677
梓 17676
梗 17675
條 17674
梟 17673
梢 17672
梦 17671
梧 17670
梨 17669
梭 17668
梯 17667
械 17666
梳 17665
梵 17664
梶 17663
检 17662
棂 17661
棄 17660
棉 17659
棋 17658
棍 17657
棒 17656
棕 17655
棗 17654
棘 17653
棚 17652
棟 17651
棠 17650
棣 17649
棧 17648
森 17647
棱 17646
棲 17645
棵 17644
棹 17643
棺 17642
椁 17641
椅 17640
椋 17639
植 17638
椎 17637
椒 17636
検 17635
椪 17634
椭 17633
椰 17632
椹 17631
椽 17630
椿 17629
楂 17628
楊 17627
楓 17626
楔 17625
楚 17624
楝 17623
楞 17622
楠 17621
楣 17620
楨 17619
楫 17618
業 17617
楮 17616
極 17615
楷 17614
楸 17613
楹 17612
楼 17611
楽 17610
概 17609
榄 17608
榆 17607
榈 17606
榉 17605
榔 17604
榕 17603
榖 17602
榛 17601
榜 17600
榨 17599
榫 17598
榭 17597
榮 17596
榱 17595
榴 17594
榷 17593
榻 17592
槁 17591
槃 17590
構 17589
槌 17588
槍 17587
槎 17586
槐 17585
槓 17584
様 17583
槛 17582
槟 17581
槤 17580
槭 17579
槲 17578
槳 17577
槻 17576
槽 17575
槿 17574
樁 17573
樂 17572
樊 17571
樑 17570
樓 17569
標 17568
樞 17567
樟 17566
模 17565
樣 17564
権 17563
横 17562
樫 17561
樯 17560
樱 17559
樵 17558
樸 17557
樹 17556
樺 17555
樽 17554
樾 17553
橄 17552
橇 17551
橋 17550
橐 17549
橘 17548
橙 17547
機 17546
橡 17545
橢 17544
橫 17543
橱 17542
橹 17541
橼 17540
檀 17539
檄 17538
檎 17537
檐 17536
檔 17535
檗 17534
檜 17533
檢 17532
檬 17531
檯 17530
檳 17529
檸 17528
檻 17527
櫃 17526
櫚 17525
櫛 17524
櫥 17523
櫸 17522
櫻 17521
欄 17520
權 17519
欒 17518
欖 17517
欠 17516
次 17515
欢 17514
欣 17513
欧 17512
欲 17511
欸 17510
欺 17509
欽 17508
款 17507
歆 17506
歇 17505
歉 17504
歌 17503
歎 17502
歐 17501
歓 17500
歙 17499
歛 17498
歡 17497
止 17496
正 17495
此 17494
步 17493
武 17492
歧 17491
歩 17490
歪 17489
歯 17488
歲 17487
歳 17486
歴 17485
歷 17484
歸 17483
歹 17482
死 17481
歼 17480
殁 17479
殃 17478
殆 17477
殇 17476
殉 17475
殊 17474
残 17473
殒 17472
殓 17471
殖 17470
殘 17469
殞 17468
殡 17467
殤 17466
殭 17465
殯 17464
殲 17463
殴 17462
段 17461
殷 17460
殺 17459
殼 17458
殿 17457
毀 17456
毁 17455
毂 17454
毅 17453
毆 17452
毋 17451
母 17450
毎 17449
每 17448
毒 17447
毓 17446
比 17445
毕 17444
毗 17443
毘 17442
毙 17441
毛 17440
毡 17439
毫 17438
毯 17437
毽 17436
氈 17435
氏 17434
氐 17433
民 17432
氓 17431
气 17430
氖 17429
気 17428
氙 17427
氛 17426
氟 17425
氡 17424
氢 17423
氣 17422
氤 17421
氦 17420
氧 17419
氨 17418
氪 17417
氫 17416
氮 17415
氯 17414
氰 17413
氲 17412
水 17411
氷 17410
永 17409
氹 17408
氾 17407
汀 17406
汁 17405
求 17404
汆 17403
汇 17402
汉 17401
汎 17400
汐 17399
汕 17398
汗 17397
汙 17396
汛 17395
汝 17394
汞 17393
江 17392
池 17391
污 17390
汤 17389
汨 17388
汩 17387
汪 17386
汰 17385
汲 17384
汴 17383
汶 17382
汹 17381
決 17380
汽 17379
汾 17378
沁 17377
沂 17376
沃 17375
沅 17374
沈 17373
沉 17372
沌 17371
沏 17370
沐 17369
沒 17368
沓 17367
沖 17366
沙 17365
沛 17364
沟 17363
没 17362
沢 17361
沣 17360
沥 17359
沦 17358
沧 17357
沪 17356
沫 17355
沭 17354
沮 17353
沱 17352
河 17351
沸 17350
油 17349
治 17348
沼 17347
沽 17346
沾 17345
沿 17344
況 17343
泄 17342
泉 17341
泊 17340
泌 17339
泓 17338
法 17337
泗 17336
泛 17335
泞 17334
泠 17333
泡 17332
波 17331
泣 17330
泥 17329
注 17328
泪 17327
泫 17326
泮 17325
泯 17324
泰 17323
泱 17322
泳 17321
泵 17320
泷 17319
泸 17318
泻 17317
泼 17316
泽 17315
泾 17314
洁 17313
洄 17312
洋 17311
洒 17310
洗 17309
洙 17308
洛 17307
洞 17306
津 17305
洩 17304
洪 17303
洮 17302
洱 17301
洲 17300
洵 17299
洶 17298
洸 17297
洹 17296
活 17295
洼 17294
洽 17293
派 17292
流 17291
浃 17290
浄 17289
浅 17288
浆 17287
浇 17286
浊 17285
测 17284
济 17283
浏 17282
浑 17281
浒 17280
浓 17279
浔 17278
浙 17277
浚 17276
浜 17275
浣 17274
浦 17273
浩 17272
浪 17271
浬 17270
浮 17269
浯 17268
浴 17267
海 17266
浸 17265
涂 17264
涅 17263
涇 17262
消 17261
涉 17260
涌 17259
涎 17258
涓 17257
涔 17256
涕 17255
涙 17254
涛 17253
涝 17252
涞 17251
涟 17250
涠 17249
涡 17248
涣 17247
涤 17246
润 17245
涧 17244
涨 17243
涩 17242
涪 17241
涮 17240
涯 17239
液 17238
涵 17237
涸 17236
涼 17235
涿 17234
淀 17233
淄 17232
淅 17231
淆 17230
淇 17229
淋 17228
淌 17227
淑 17226
淒 17225
淖 17224
淘 17223
淙 17222
淚 17221
淞 17220
淡 17219
淤 17218
淦 17217
淨 17216
淩 17215
淪 17214
淫 17213
淬 17212
淮 17211
深 17210
淳 17209
淵 17208
混 17207
淹 17206
淺 17205
添 17204
淼 17203
清 17202
済 17201
渉 17200
渊 17199
渋 17198
渍 17197
渎 17196
渐 17195
渔 17194
渗 17193
渙 17192
渚 17191
減 17190
渝 17189
渠 17188
渡 17187
渣 17186
渤 17185
渥 17184
渦 17183
温 17182
測 17181
渭 17180
港 17179
渲 17178
渴 17177
游 17176
渺 17175
渾 17174
湃 17173
湄 17172
湊 17171
湍 17170
湖 17169
湘 17168
湛 17167
湟 17166
湧 17165
湫 17164
湮 17163
湯 17162
湳 17161
湾 17160
湿 17159
満 17158
溃 17157
溅 17156
溉 17155
溏 17154
源 17153
準 17152
溜 17151
溝 17150
溟 17149
溢 17148
溥 17147
溧 17146
溪 17145
溫 17144
溯 17143
溱 17142
溴 17141
溶 17140
溺 17139
溼 17138
滁 17137
滂 17136
滄 17135
滅 17134
滇 17133
滋 17132
滌 17131
滑 17130
滓 17129
滔 17128
滕 17127
滙 17126
滚 17125
滝 17124
滞 17123
滟 17122
满 17121
滢 17120
滤 17119
滥 17118
滦 17117
滨 17116
滩 17115
滬 17114
滯 17113
滲 17112
滴 17111
滷 17110
滸 17109
滾 17108
滿 17107
漁 17106
漂 17105
漆 17104
漉 17103
漏 17102
漓 17101
演 17100
漕 17099
漠 17098
漢 17097
漣 17096
漩 17095
漪 17094
漫 17093
漬 17092
漯 17091
漱 17090
漲 17089
漳 17088
漸 17087
漾 17086
漿 17085
潆 17084
潇 17083
潋 17082
潍 17081
潑 17080
潔 17079
潘 17078
潛 17077
潜 17076
潞 17075
潟 17074
潢 17073
潤 17072
潦 17071
潧 17070
潭 17069
潮 17068
潰 17067
潴 17066
潸 17065
潺 17064
潼 17063
澀 17062
澄 17061
澆 17060
澈 17059
澍 17058
澎 17057
澗 17056
澜 17055
澡 17054
澤 17053
澧 17052
澱 17051
澳 17050
澹 17049
激 17048
濁 17047
濂 17046
濃 17045
濑 17044
濒 17043
濕 17042
濘 17041
濛 17040
濟 17039
濠 17038
濡 17037
濤 17036
濫 17035
濬 17034
濮 17033
濯 17032
濱 17031
濺 17030
濾 17029
瀅 17028
瀆 17027
瀉 17026
瀋 17025
瀏 17024
瀑 17023
瀕 17022
瀘 17021
瀚 17020
瀛 17019
瀝 17018
瀞 17017
瀟 17016
瀧 17015
瀨 17014
瀬 17013
瀰 17012
瀾 17011
灌 17010
灏 17009
灑 17008
灘 17007
灝 17006
灞 17005
灣 17004
火 17003
灬 17002
灭 17001
灯 17000
灰 16999
灵 16998
灶 16997
灸 16996
灼 16995
災 16994
灾 16993
灿 16992
炀 16991
炁 16990
炅 16989
炉 16988
炊 16987
炎 16986
炒 16985
炔 16984
炕 16983
炖 16982
炙 16981
炜 16980
炫 16979
炬 16978
炭 16977
炮 16976
炯 16975
炳 16974
炷 16973
炸 16972
点 16971
為 16970
炼 16969
炽 16968
烁 16967
烂 16966
烃 16965
烈 16964
烊 16963
烏 16962
烘 16961
烙 16960
烛 16959
烟 16958
烤 16957
烦 16956
烧 16955
烨 16954
烩 16953
烫 16952
烬 16951
热 16950
烯 16949
烷 16948
烹 16947
烽 16946
焉 16945
焊 16944
焕 16943
焖 16942
焗 16941
焘 16940
焙 16939
焚 16938
焜 16937
無 16936
焦 16935
焯 16934
焰 16933
焱 16932
然 16931
焼 16930
煅 16929
煉 16928
煊 16927
煌 16926
煎 16925
煒 16924
煖 16923
煙 16922
煜 16921
煞 16920
煤 16919
煥 16918
煦 16917
照 16916
煨 16915
煩 16914
煮 16913
煲 16912
煸 16911
煽 16910
熄 16909
熊 16908
熏 16907
熒 16906
熔 16905
熙 16904
熟 16903
熠 16902
熨 16901
熬 16900
熱 16899
熵 16898
熹 16897
熾 16896
燁 16895
燃 16894
燄 16893
燈 16892
燉 16891
燊 16890
燎 16889
燒 16888
燔 16887
燕 16886
燙 16885
燜 16884
營 16883
燥 16882
燦 16881
燧 16880
燭 16879
燮 16878
燴 16877
燻 16876
燼 16875
燿 16874
爆 16873
爍 16872
爐 16871
爛 16870
爪 16869
爬 16868
爭 16867
爰 16866
爱 16865
爲 16864
爵 16863
父 16862
爷 16861
爸 16860
爹 16859
爺 16858
爻 16857
爽 16856
爾 16855
牆 16854
片 16853
版 16852
牌 16851
牍 16850
牒 16849
牙 16848
牛 16847
牝 16846
牟 16845
牠 16844
牡 16843
牢 16842
牦 16841
牧 16840
物 16839
牯 16838
牲 16837
牴 16836
牵 16835
特 16834
牺 16833
牽 16832
犀 16831
犁 16830
犄 16829
犊 16828
犍 16827
犒 16826
犢 16825
犧 16824
犬 16823
犯 16822
状 16821
犷 16820
犸 16819
犹 16818
狀 16817
狂 16816
狄 16815
狈 16814
狎 16813
狐 16812
狒 16811
狗 16810
狙 16809
狞 16808
狠 16807
狡 16806
狩 16805
独 16804
狭 16803
狮 16802
狰 16801
狱 16800
狸 16799
狹 16798
狼 16797
狽 16796
猎 16795
猕 16794
猖 16793
猗 16792
猙 16791
猛 16790
猜 16789
猝 16788
猥 16787
猩 16786
猪 16785
猫 16784
猬 16783
献 16782
猴 16781
猶 16780
猷 16779
猾 16778
猿 16777
獄 16776
獅 16775
獎 16774
獐 16773
獒 16772
獗 16771
獠 16770
獣 16769
獨 16768
獭 16767
獰 16766
獲 16765
獵 16764
獷 16763
獸 16762
獺 16761
獻 16760
獼 16759
獾 16758
玄 16757
率 16756
玉 16755
王 16754
玑 16753
玖 16752
玛 16751
玟 16750
玠 16749
玥 16748
玩 16747
玫 16746
玮 16745
环 16744
现 16743
玲 16742
玳 16741
玷 16740
玺 16739
玻 16738
珀 16737
珂 16736
珅 16735
珈 16734
珉 16733
珊 16732
珍 16731
珏 16730
珐 16729
珑 16728
珙 16727
珞 16726
珠 16725
珣 16724
珥 16723
珩 16722
珪 16721
班 16720
珮 16719
珲 16718
珺 16717
現 16716
球 16715
琅 16714
理 16713
琇 16712
琉 16711
琊 16710
琍 16709
琏 16708
琐 16707
琛 16706
琢 16705
琥 16704
琦 16703
琨 16702
琪 16701
琬 16700
琮 16699
琰 16698
琲 16697
琳 16696
琴 16695
琵 16694
琶 16693
琺 16692
琼 16691
瑀 16690
瑁 16689
瑄 16688
瑋 16687
瑕 16686
瑗 16685
瑙 16684
瑚 16683
瑛 16682
瑜 16681
瑞 16680
瑟 16679
瑠 16678
瑣 16677
瑤 16676
瑩 16675
瑪 16674
瑯 16673
瑰 16672
瑶 16671
瑾 16670
璀 16669
璁 16668
璃 16667
璇 16666
璉 16665
璋 16664
璎 16663
璐 16662
璜 16661
璞 16660
璟 16659
璧 16658
璨 16657
環 16656
璽 16655
璿 16654
瓊 16653
瓏 16652
瓒 16651
瓜 16650
瓢 16649
瓣 16648
瓤 16647
瓦 16646
瓮 16645
瓯 16644
瓴 16643
瓶 16642
瓷 16641
甄 16640
甌 16639
甕 16638
甘 16637
甙 16636
甚 16635
甜 16634
生 16633
產 16632
産 16631
甥 16630
甦 16629
用 16628
甩 16627
甫 16626
甬 16625
甭 16624
甯 16623
田 16622
由 16621
甲 16620
申 16619
电 16618
男 16617
甸 16616
町 16615
画 16614
甾 16613
畀 16612
畅 16611
界 16610
畏 16609
畑 16608
畔 16607
留 16606
畜 16605
畝 16604
畢 16603
略 16602
畦 16601
番 16600
畫 16599
異 16598
畲 16597
畳 16596
畴 16595
當 16594
畸 16593
畹 16592
畿 16591
疆 16590
疇 16589
疊 16588
疏 16587
疑 16586
疔 16585
疖 16584
疗 16583
疙 16582
疚 16581
疝 16580
疟 16579
疡 16578
疣 16577
疤 16576
疥 16575
疫 16574
疮 16573
疯 16572
疱 16571
疲 16570
疳 16569
疵 16568
疸 16567
疹 16566
疼 16565
疽 16564
疾 16563
痂 16562
病 16561
症 16560
痈 16559
痉 16558
痊 16557
痍 16556
痒 16555
痔 16554
痕 16553
痘 16552
痙 16551
痛 16550
痞 16549
痠 16548
痢 16547
痣 16546
痤 16545
痧 16544
痨 16543
痪 16542
痫 16541
痰 16540
痱 16539
痴 16538
痹 16537
痺 16536
痼 16535
痿 16534
瘀 16533
瘁 16532
瘋 16531
瘍 16530
瘓 16529
瘘 16528
瘙 16527
瘟 16526
瘠 16525
瘡 16524
瘢 16523
瘤 16522
瘦 16521
瘧 16520
瘩 16519
瘪 16518
瘫 16517
瘴 16516
瘸 16515
瘾 16514
療 16513
癇 16512
癌 16511
癒 16510
癖 16509
癜 16508
癞 16507
癡 16506
癢 16505
癣 16504
癥 16503
癫 16502
癬 16501
癮 16500
癱 16499
癲 16498
癸 16497
発 16496
登 16495
發 16494
白 16493
百 16492
皂 16491
的 16490
皆 16489
皇 16488
皈 16487
皋 16486
皎 16485
皑 16484
皓 16483
皖 16482
皙 16481
皚 16480
皮 16479
皰 16478
皱 16477
皴 16476
皺 16475
皿 16474
盂 16473
盃 16472
盅 16471
盆 16470
盈 16469
益 16468
盎 16467
盏 16466
盐 16465
监 16464
盒 16463
盔 16462
盖 16461
盗 16460
盘 16459
盛 16458
盜 16457
盞 16456
盟 16455
盡 16454
監 16453
盤 16452
盥 16451
盧 16450
盪 16449
目 16448
盯 16447
盱 16446
盲 16445
直 16444
相 16443
盹 16442
盼 16441
盾 16440
省 16439
眈 16438
眉 16437
看 16436
県 16435
眙 16434
眞 16433
真 16432
眠 16431
眦 16430
眨 16429
眩 16428
眯 16427
眶 16426
眷 16425
眸 16424
眺 16423
眼 16422
眾 16421
着 16420
睁 16419
睇 16418
睏 16417
睐 16416
睑 16415
睛 16414
睜 16413
睞 16412
睡 16411
睢 16410
督 16409
睥 16408
睦 16407
睨 16406
睪 16405
睫 16404
睬 16403
睹 16402
睽 16401
睾 16400
睿 16399
瞄 16398
瞅 16397
瞇 16396
瞋 16395
瞌 16394
瞎 16393
瞑 16392
瞒 16391
瞓 16390
瞞 16389
瞟 16388
瞠 16387
瞥 16386
瞧 16385
瞩 16384
瞪 16383
瞬 16382
瞭 16381
瞰 16380
瞳 16379
瞻 16378
瞼 16377
瞿 16376
矇 16375
矍 16374
矗 16373
矚 16372
矛 16371
矜 16370
矢 16369
矣 16368
知 16367
矩 16366
矫 16365
短 16364
矮 16363
矯 16362
石 16361
矶 16360
矽 16359
矾 16358
矿 16357
码 16356
砂 16355
砌 16354
砍 16353
砒 16352
研 16351
砖 16350
砗 16349
砚 16348
砝 16347
砣 16346
砥 16345
砧 16344
砭 16343
砰 16342
砲 16341
破 16340
砷 16339
砸 16338
砺 16337
砼 16336
砾 16335
础 16334
硅 16333
硐 16332
硒 16331
硕 16330
硝 16329
硫 16328
硬 16327
确 16326
硯 16325
硼 16324
碁 16323
碇 16322
碉 16321
碌 16320
碍 16319
碎 16318
碑 16317
碓 16316
碗 16315
碘 16314
碚 16313
碛 16312
碟 16311
碣 16310
碧 16309
碩 16308
碰 16307
碱 16306
碳 16305
碴 16304
確 16303
碼 16302
碾 16301
磁 16300
磅 16299
磊 16298
磋 16297
磐 16296
磕 16295
磚 16294
磡 16293
磨 16292
磬 16291
磯 16290
磲 16289
磷 16288
磺 16287
礁 16286
礎 16285
礙 16284
礡 16283
礦 16282
礪 16281
礫 16280
礴 16279
示 16278
礼 16277
社 16276
祀 16275
祁 16274
祂 16273
祇 16272
祈 16271
祉 16270
祎 16269
祐 16268
祕 16267
祖 16266
祗 16265
祚 16264
祛 16263
祜 16262
祝 16261
神 16260
祟 16259
祠 16258
祢 16257
祥 16256
票 16255
祭 16254
祯 16253
祷 16252
祸 16251
祺 16250
祿 16249
禀 16248
禁 16247
禄 16246
禅 16245
禍 16244
禎 16243
福 16242
禛 16241
禦 16240
禧 16239
禪 16238
禮 16237
禱 16236
禹 16235
禺 16234
离 16233
禽 16232
禾 16231
禿 16230
秀 16229
私 16228
秃 16227
秆 16226
秉 16225
秋 16224
种 16223
科 16222
秒 16221
秘 16220
租 16219
秣 16218
秤 16217
秦 16216
秧 16215
秩 16214
秭 16213
积 16212
称 16211
秸 16210
移 16209
秽 16208
稀 16207
稅 16206
程 16205
稍 16204
税 16203
稔 16202
稗 16201
稚 16200
稜 16199
稞 16198
稟 16197
稠 16196
稣 16195
種 16194
稱 16193
稲 16192
稳 16191
稷 16190
稹 16189
稻 16188
稼 16187
稽 16186
稿 16185
穀 16184
穂 16183
穆 16182
穌 16181
積 16180
穎 16179
穗 16178
穢 16177
穩 16176
穫 16175
穴 16174
究 16173
穷 16172
穹 16171
空 16170
穿 16169
突 16168
窃 16167
窄 16166
窈 16165
窍 16164
窑 16163
窒 16162
窓 16161
窕 16160
窖 16159
窗 16158
窘 16157
窜 16156
窝 16155
窟 16154
窠 16153
窥 16152
窦 16151
窨 16150
窩 16149
窪 16148
窮 16147
窯 16146
窺 16145
窿 16144
竄 16143
竅 16142
竇 16141
竊 16140
立 16139
竖 16138
站 16137
竜 16136
竞 16135
竟 16134
章 16133
竣 16132
童 16131
竭 16130
端 16129
競 16128
竹 16127
竺 16126
竽 16125
竿 16124
笃 16123
笆 16122
笈 16121
笋 16120
笏 16119
笑 16118
笔 16117
笙 16116
笛 16115
笞 16114
笠 16113
符 16112
笨 16111
第 16110
笹 16109
笺 16108
笼 16107
筆 16106
等 16105
筊 16104
筋 16103
筍 16102
筏 16101
筐 16100
筑 16099
筒 16098
答 16097
策 16096
筛 16095
筝 16094
筠 16093
筱 16092
筲 16091
筵 16090
筷 16089
筹 16088
签 16087
简 16086
箇 16085
箋 16084
箍 16083
箏 16082
箐 16081
箔 16080
箕 16079
算 16078
箝 16077
管 16076
箩 16075
箫 16074
箭 16073
箱 16072
箴 16071
箸 16070
節 16069
篁 16068
範 16067
篆 16066
篇 16065
築 16064
篑 16063
篓 16062
篙 16061
篝 16060
篠 16059
篡 16058
篤 16057
篩 16056
篪 16055
篮 16054
篱 16053
篷 16052
簇 16051
簌 16050
簍 16049
簡 16048
簦 16047
簧 16046
簪 16045
簫 16044
簷 16043
簸 16042
簽 16041
簾 16040
簿 16039
籁 16038
籃 16037
籌 16036
籍 16035
籐 16034
籟 16033
籠 16032
籤 16031
籬 16030
籮 16029
籲 16028
米 16027
类 16026
籼 16025
籽 16024
粄 16023
粉 16022
粑 16021
粒 16020
粕 16019
粗 16018
粘 16017
粟 16016
粤 16015
粥 16014
粧 16013
粪 16012
粮 16011
粱 16010
粲 16009
粳 16008
粵 16007
粹 16006
粼 16005
粽 16004
精 16003
粿 16002
糅 16001
糊 16000
糍 15999
糕 15998
糖 15997
糗 15996
糙 15995
糜 15994
糞 15993
糟 15992
糠 15991
糧 15990
糬 15989
糯 15988
糰 15987
糸 15986
系 15985
糾 15984
紀 15983
紂 15982
約 15981
紅 15980
紉 15979
紊 15978
紋 15977
納 15976
紐 15975
紓 15974
純 15973
紗 15972
紘 15971
紙 15970
級 15969
紛 15968
紜 15967
素 15966
紡 15965
索 15964
紧 15963
紫 15962
紮 15961
累 15960
細 15959
紳 15958
紹 15957
紺 15956
終 15955
絃 15954
組 15953
絆 15952
経 15951
結 15950
絕 15949
絞 15948
絡 15947
絢 15946
給 15945
絨 15944
絮 15943
統 15942
絲 15941
絳 15940
絵 15939
絶 15938
絹 15937
綁 15936
綏 15935
綑 15934
經 15933
継 15932
続 15931
綜 15930
綠 15929
綢 15928
綦 15927
綫 15926
綬 15925
維 15924
綱 15923
網 15922
綴 15921
綵 15920
綸 15919
綺 15918
綻 15917
綽 15916
綾 15915
綿 15914
緊 15913
緋 15912
総 15911
緑 15910
緒 15909
緘 15908
線 15907
緝 15906
緞 15905
締 15904
緣 15903
編 15902
緩 15901
緬 15900
緯 15899
練 15898
緹 15897
緻 15896
縁 15895
縄 15894
縈 15893
縛 15892
縝 15891
縣 15890
縫 15889
縮 15888
縱 15887
縴 15886
縷 15885
總 15884
績 15883
繁 15882
繃 15881
繆 15880
繇 15879
繋 15878
織 15877
繕 15876
繚 15875
繞 15874
繡 15873
繩 15872
繪 15871
繫 15870
繭 15869
繳 15868
繹 15867
繼 15866
繽 15865
纂 15864
續 15863
纍 15862
纏 15861
纓 15860
纔 15859
纖 15858
纜 15857
纠 15856
红 15855
纣 15854
纤 15853
约 15852
级 15851
纨 15850
纪 15849
纫 15848
纬 15847
纭 15846
纯 15845
纰 15844
纱 15843
纲 15842
纳 15841
纵 15840
纶 15839
纷 15838
纸 15837
纹 15836
纺 15835
纽 15834
纾 15833
线 15832
绀 15831
练 15830
组 15829
绅 15828
细 15827
织 15826
终 15825
绊 15824
绍 15823
绎 15822
经 15821
绑 15820
绒 15819
结 15818
绔 15817
绕 15816
绘 15815
给 15814
绚 15813
绛 15812
络 15811
绝 15810
绞 15809
统 15808
绡 15807
绢 15806
绣 15805
绥 15804
绦 15803
继 15802
绩 15801
绪 15800
绫 15799
续 15798
绮 15797
绯 15796
绰 15795
绳 15794
维 15793
绵 15792
绶 15791
绷 15790
绸 15789
绻 15788
综 15787
绽 15786
绾 15785
绿 15784
缀 15783
缄 15782
缅 15781
缆 15780
缇 15779
缈 15778
缉 15777
缎 15776
缓 15775
缔 15774
缕 15773
编 15772
缘 15771
缙 15770
缚 15769
缜 15768
缝 15767
缠 15766
缢 15765
缤 15764
缥 15763
缨 15762
缩 15761
缪 15760
缭 15759
缮 15758
缰 15757
缱 15756
缴 15755
缸 15754
缺 15753
缽 15752
罂 15751
罄 15750
罌 15749
罐 15748
网 15747
罔 15746
罕 15745
罗 15744
罚 15743
罡 15742
罢 15741
罩 15740
罪 15739
置 15738
罰 15737
署 15736
罵 15735
罷 15734
罹 15733
羁 15732
羅 15731
羈 15730
羊 15729
羌 15728
美 15727
羔 15726
羚 15725
羞 15724
羟 15723
羡 15722
羣 15721
群 15720
羥 15719
羧 15718
羨 15717
義 15716
羯 15715
羲 15714
羸 15713
羹 15712
羽 15711
羿 15710
翁 15709
翅 15708
翊 15707
翌 15706
翎 15705
習 15704
翔 15703
翘 15702
翟 15701
翠 15700
翡 15699
翦 15698
翩 15697
翰 15696
翱 15695
翳 15694
翹 15693
翻 15692
翼 15691
耀 15690
老 15689
考 15688
耄 15687
者 15686
耆 15685
耋 15684
而 15683
耍 15682
耐 15681
耒 15680
耕 15679
耗 15678
耘 15677
耙 15676
耦 15675
耨 15674
耳 15673
耶 15672
耷 15671
耸 15670
耻 15669
耽 15668
耿 15667
聂 15666
聆 15665
聊 15664
聋 15663
职 15662
聒 15661
联 15660
聖 15659
聘 15658
聚 15657
聞 15656
聪 15655
聯 15654
聰 15653
聲 15652
聳 15651
聴 15650
聶 15649
職 15648
聽 15647
聾 15646
聿 15645
肃 15644
肄 15643
肅 15642
肆 15641
肇 15640
肉 15639
肋 15638
肌 15637
肏 15636
肓 15635
肖 15634
肘 15633
肚 15632
肛 15631
肝 15630
肠 15629
股 15628
肢 15627
肤 15626
肥 15625
肩 15624
肪 15623
肮 15622
肯 15621
肱 15620
育 15619
肴 15618
肺 15617
肽 15616
肾 15615
肿 15614
胀 15613
胁 15612
胃 15611
胄 15610
胆 15609
背 15608
胍 15607
胎 15606
胖 15605
胚 15604
胛 15603
胜 15602
胝 15601
胞 15600
胡 15599
胤 15598
胥 15597
胧 15596
胫 15595
胭 15594
胯 15593
胰 15592
胱 15591
胳 15590
胴 15589
胶 15588
胸 15587
胺 15586
能 15585
脂 15584
脅 15583
脆 15582
脇 15581
脈 15580
脉 15579
脊 15578
脍 15577
脏 15576
脐 15575
脑 15574
脓 15573
脖 15572
脘 15571
脚 15570
脛 15569
脣 15568
脩 15567
脫 15566
脯 15565
脱 15564
脲 15563
脳 15562
脸 15561
脹 15560
脾 15559
腆 15558
腈 15557
腊 15556
腋 15555
腌 15554
腎 15553
腐 15552
腑 15551
腓 15550
腔 15549
腕 15548
腥 15547
腦 15546
腩 15545
腫 15544
腭 15543
腮 15542
腰 15541
腱 15540
腳 15539
腴 15538
腸 15537
腹 15536
腺 15535
腻 15534
腼 15533
腾 15532
腿 15531
膀 15530
膈 15529
膊 15528
膏 15527
膑 15526
膘 15525
膚 15524
膛 15523
膜 15522
膝 15521
膠 15520
膦 15519
膨 15518
膩 15517
膳 15516
膺 15515
膻 15514
膽 15513
膾 15512
膿 15511
臀 15510
臂 15509
臃 15508
臆 15507
臉 15506
臊 15505
臍 15504
臓 15503
臘 15502
臟 15501
臣 15500
臥 15499
臧 15498
臨 15497
自 15496
臬 15495
臭 15494
至 15493
致 15492
臺 15491
臻 15490
臼 15489
臾 15488
舀 15487
舂 15486
舅 15485
舆 15484
與 15483
興 15482
舉 15481
舊 15480
舌 15479
舍 15478
舎 15477
舐 15476
舒 15475
舔 15474
舖 15473
舗 15472
舛 15471
舜 15470
舞 15469
舟 15468
航 15467
舫 15466
般 15465
舰 15464
舱 15463
舵 15462
舶 15461
舷 15460
舸 15459
船 15458
舺 15457
舾 15456
艇 15455
艋 15454
艘 15453
艙 15452
艦 15451
艮 15450
良 15449
艰 15448
艱 15447
色 15446
艳 15445
艷 15444
艹 15443
艺 15442
艾 15441
节 15440
芃 15439
芈 15438
芊 15437
芋 15436
芍 15435
芎 15434
芒 15433
芙 15432
芜 15431
芝 15430
芡 15429
芥 15428
芦 15427
芩 15426
芪 15425
芫 15424
芬 15423
芭 15422
芮 15421
芯 15420
花 15419
芳 15418
芷 15417
芸 15416
芹 15415
芻 15414
芽 15413
芾 15412
苁 15411
苄 15410
苇 15409
苋 15408
苍 15407
苏 15406
苑 15405
苒 15404
苓 15403
苔 15402
苕 15401
苗 15400
苛 15399
苜 15398
苞 15397
苟 15396
苡 15395
苣 15394
若 15393
苦 15392
苫 15391
苯 15390
英 15389
苷 15388
苹 15387
苻 15386
茁 15385
茂 15384
范 15383
茄 15382
茅 15381
茉 15380
茎 15379
茏 15378
茗 15377
茜 15376
茧 15375
茨 15374
茫 15373
茬 15372
茭 15371
茯 15370
茱 15369
茲 15368
茴 15367
茵 15366
茶 15365
茸 15364
茹 15363
茼 15362
荀 15361
荃 15360
荆 15359
草 15358
荊 15357
荏 15356
荐 15355
荒 15354
荔 15353
荖 15352
荘 15351
荚 15350
荞 15349
荟 15348
荠 15347
荡 15346
荣 15345
荤 15344
荥 15343
荧 15342
荨 15341
荪 15340
荫 15339
药 15338
荳 15337
荷 15336
荸 15335
荻 15334
荼 15333
荽 15332
莅 15331
莆 15330
莉 15329
莊 15328
莎 15327
莒 15326
莓 15325
莖 15324
莘 15323
莞 15322
莠 15321
莢 15320
莧 15319
莪 15318
莫 15317
莱 15316
莲 15315
莴 15314
获 15313
莹 15312
莺 15311
莽 15310
莿 15309
菀 15308
菁 15307
菅 15306
菇 15305
菈 15304
菊 15303
菌 15302
菏 15301
菓 15300
菖 15299
菘 15298
菜 15297
菟 15296
菠 15295
菡 15294
菩 15293
華 15292
菱 15291
菲 15290
菸 15289
菽 15288
萁 15287
萃 15286
萄 15285
萊 15284
萋 15283
萌 15282
萍 15281
萎 15280
萘 15279
萝 15278
萤 15277
营 15276
萦 15275
萧 15274
萨 15273
萩 15272
萬 15271
萱 15270
萵 15269
萸 15268
萼 15267
落 15266
葆 15265
葉 15264
著 15263
葚 15262
葛 15261
葡 15260
董 15259
葦 15258
葩 15257
葫 15256
葬 15255
葭 15254
葯 15253
葱 15252
葳 15251
葵 15250
葷 15249
葺 15248
蒂 15247
蒋 15246
蒐 15245
蒔 15244
蒙 15243
蒜 15242
蒞 15241
蒟 15240
蒡 15239
蒨 15238
蒲 15237
蒸 15236
蒹 15235
蒻 15234
蒼 15233
蒿 15232
蓁 15231
蓄 15230
蓆 15229
蓉 15228
蓋 15227
蓑 15226
蓓 15225
蓖 15224
蓝 15223
蓟 15222
蓦 15221
蓬 15220
蓮 15219
蓼 15218
蓿 15217
蔑 15216
蔓 15215
蔔 15214
蔗 15213
蔘 15212
蔚 15211
蔡 15210
蔣 15209
蔥 15208
蔫 15207
蔬 15206
蔭 15205
蔵 15204
蔷 15203
蔺 15202
蔻 15201
蔼 15200
蔽 15199
蕁 15198
蕃 15197
蕈 15196
蕉 15195
蕊 15194
蕎 15193
蕙 15192
蕤 15191
蕨 15190
蕩 15189
蕪 15188
蕭 15187
蕲 15186
蕴 15185
蕻 15184
蕾 15183
薄 15182
薅 15181
薇 15180
薈 15179
薊 15178
薏 15177
薑 15176
薔 15175
薙 15174
薛 15173
薦 15172
薨 15171
薩 15170
薪 15169
薬 15168
薯 15167
薰 15166
薹 15165
藉 15164
藍 15163
藏 15162
藐 15161
藓 15160
藕 15159
藜 15158
藝 15157
藤 15156
藥 15155
藩 15154
藹 15153
藻 15152
藿 15151
蘆 15150
蘇 15149
蘊 15148
蘋 15147
蘑 15146
蘚 15145
蘭 15144
蘸 15143
蘼 15142
蘿 15141
虎 15140
虏 15139
虐 15138
虑 15137
虔 15136
處 15135
虚 15134
虛 15133
虜 15132
虞 15131
號 15130
虢 15129
虧 15128
虫 15127
虬 15126
虱 15125
虹 15124
虻 15123
虽 15122
虾 15121
蚀 15120
蚁 15119
蚂 15118
蚊 15117
蚌 15116
蚓 15115
蚕 15114
蚜 15113
蚝 15112
蚣 15111
蚤 15110
蚩 15109
蚪 15108
蚯 15107
蚱 15106
蚵 15105
蛀 15104
蛆 15103
蛇 15102
蛊 15101
蛋 15100
蛎 15099
蛐 15098
蛔 15097
蛙 15096
蛛 15095
蛟 15094
蛤 15093
蛭 15092
蛮 15091
蛰 15090
蛳 15089
蛹 15088
蛻 15087
蛾 15086
蜀 15085
蜂 15084
蜃 15083
蜆 15082
蜇 15081
蜈 15080
蜊 15079
蜍 15078
蜒 15077
蜓 15076
蜕 15075
蜗 15074
蜘 15073
蜚 15072
蜜 15071
蜡 15070
蜢 15069
蜥 15068
蜱 15067
蜴 15066
蜷 15065
蜻 15064
蜿 15063
蝇 15062
蝈 15061
蝉 15060
蝌 15059
蝎 15058
蝕 15057
蝗 15056
蝙 15055
蝟 15054
蝠 15053
蝦 15052
蝨 15051
蝴 15050
蝶 15049
蝸 15048
蝼 15047
螂 15046
螃 15045
融 15044
螞 15043
螢 15042
螨 15041
螯 15040
螳 15039
螺 15038
蟀 15037
蟄 15036
蟆 15035
蟋 15034
蟎 15033
蟑 15032
蟒 15031
蟠 15030
蟬 15029
蟲 15028
蟹 15027
蟻 15026
蟾 15025
蠅 15024
蠍 15023
蠔 15022
蠕 15021
蠛 15020
蠟 15019
蠡 15018
蠢 15017
蠣 15016
蠱 15015
蠶 15014
蠹 15013
蠻 15012
血 15011
衄 15010
衅 15009
衆 15008
行 15007
衍 15006
術 15005
衔 15004
街 15003
衙 15002
衛 15001
衝 15000
衞 14999
衡 14998
衢 14997
衣 14996
补 14995
表 14994
衩 14993
衫 14992
衬 14991
衮 14990
衰 14989
衲 14988
衷 14987
衹 14986
衾 14985
衿 14984
袁 14983
袂 14982
袄 14981
袅 14980
袈 14979
袋 14978
袍 14977
袒 14976
袖 14975
袜 14974
袞 14973
袤 14972
袪 14971
被 14970
袭 14969
袱 14968
裁 14967
裂 14966
装 14965
裆 14964
裊 14963
裏 14962
裔 14961
裕 14960
裘 14959
裙 14958
補 14957
裝 14956
裟 14955
裡 14954
裤 14953
裨 14952
裱 14951
裳 14950
裴 14949
裸 14948
裹 14947
製 14946
裾 14945
褂 14944
複 14943
褐 14942
褒 14941
褓 14940
褔 14939
褚 14938
褥 14937
褪 14936
褫 14935
褲 14934
褶 14933
褻 14932
襁 14931
襄 14930
襟 14929
襠 14928
襪 14927
襬 14926
襯 14925
襲 14924
西 14923
要 14922
覃 14921
覆 14920
覇 14919
見 14918
規 14917
覓 14916
視 14915
覚 14914
覦 14913
覧 14912
親 14911
覬 14910
観 14909
覷 14908
覺 14907
覽 14906
觀 14905
见 14904
观 14903
规 14902
觅 14901
视 14900
览 14899
觉 14898
觊 14897
觎 14896
觐 14895
觑 14894
角 14893
觞 14892
解 14891
觥 14890
触 14889
觸 14888
言 14887
訂 14886
計 14885
訊 14884
討 14883
訓 14882
訕 14881
訖 14880
託 14879
記 14878
訛 14877
訝 14876
訟 14875
訣 14874
訥 14873
訪 14872
設 14871
許 14870
訳 14869
訴 14868
訶 14867
診 14866
註 14865
証 14864
詆 14863
詐 14862
詔 14861
評 14860
詛 14859
詞 14858
詠 14857
詡 14856
詢 14855
詣 14854
試 14853
詩 14852
詫 14851
詬 14850
詭 14849
詮 14848
詰 14847
話 14846
該 14845
詳 14844
詹 14843
詼 14842
誅 14841
誇 14840
誉 14839
誌 14838
認 14837
誓 14836
誕 14835
誘 14834
語 14833
誠 14832
誡 14831
誣 14830
誤 14829
誥 14828
誦 14827
誨 14826
說 14825
説 14824
読 14823
誰 14822
課 14821
誹 14820
誼 14819
調 14818
諄 14817
談 14816
請 14815
諏 14814
諒 14813
論 14812
諗 14811
諜 14810
諡 14809
諦 14808
諧 14807
諫 14806
諭 14805
諮 14804
諱 14803
諳 14802
諷 14801
諸 14800
諺 14799
諾 14798
謀 14797
謁 14796
謂 14795
謄 14794
謊 14793
謎 14792
謐 14791
謔 14790
謗 14789
謙 14788
講 14787
謝 14786
謠 14785
謨 14784
謬 14783
謹 14782
謾 14781
譁 14780
證 14779
譎 14778
譏 14777
識 14776
譙 14775
譚 14774
譜 14773
警 14772
譬 14771
譯 14770
議 14769
譲 14768
譴 14767
護 14766
譽 14765
讀 14764
變 14763
讓 14762
讚 14761
讞 14760
计 14759
订 14758
认 14757
讥 14756
讧 14755
讨 14754
让 14753
讪 14752
讫 14751
训 14750
议 14749
讯 14748
记 14747
讲 14746
讳 14745
讴 14744
讶 14743
讷 14742
许 14741
讹 14740
论 14739
讼 14738
讽 14737
设 14736
访 14735
诀 14734
证 14733
诃 14732
评 14731
诅 14730
识 14729
诈 14728
诉 14727
诊 14726
诋 14725
词 14724
诏 14723
译 14722
试 14721
诗 14720
诘 14719
诙 14718
诚 14717
诛 14716
话 14715
诞 14714
诟 14713
诠 14712
诡 14711
询 14710
诣 14709
诤 14708
该 14707
详 14706
诧 14705
诩 14704
诫 14703
诬 14702
语 14701
误 14700
诰 14699
诱 14698
诲 14697
说 14696
诵 14695
诶 14694
请 14693
诸 14692
诺 14691
读 14690
诽 14689
课 14688
诿 14687
谀 14686
谁 14685
调 14684
谄 14683
谅 14682
谆 14681
谈 14680
谊 14679
谋 14678
谌 14677
谍 14676
谎 14675
谏 14674
谐 14673
谑 14672
谒 14671
谓 14670
谔 14669
谕 14668
谗 14667
谘 14666
谙 14665
谚 14664
谛 14663
谜 14662
谟 14661
谢 14660
谣 14659
谤 14658
谥 14657
谦 14656
谧 14655
谨 14654
谩 14653
谪 14652
谬 14651
谭 14650
谯 14649
谱 14648
谲 14647
谴 14646
谶 14645
谷 14644
豁 14643
豆 14642
豇 14641
豈 14640
豉 14639
豊 14638
豌 14637
豎 14636
豐 14635
豔 14634
豚 14633
象 14632
豢 14631
豪 14630
豫 14629
豬 14628
豹 14627
豺 14626
貂 14625
貅 14624
貌 14623
貓 14622
貔 14621
貘 14620
貝 14619
貞 14618
負 14617
財 14616
貢 14615
貧 14614
貨 14613
販 14612
貪 14611
貫 14610
責 14609
貯 14608
貰 14607
貳 14606
貴 14605
貶 14604
買 14603
貸 14602
費 14601
貼 14600
貽 14599
貿 14598
賀 14597
賁 14596
賂 14595
賃 14594
賄 14593
資 14592
賈 14591
賊 14590
賑 14589
賓 14588
賜 14587
賞 14586
賠 14585
賡 14584
賢 14583
賣 14582
賤 14581
賦 14580
質 14579
賬 14578
賭 14577
賴 14576
賺 14575
購 14574
賽 14573
贅 14572
贈 14571
贊 14570
贍 14569
贏 14568
贓 14567
贖 14566
贛 14565
贝 14564
贞 14563
负 14562
贡 14561
财 14560
责 14559
贤 14558
败 14557
账 14556
货 14555
质 14554
贩 14553
贪 14552
贫 14551
贬 14550
购 14549
贮 14548
贯 14547
贰 14546
贱 14545
贲 14544
贴 14543
贵 14542
贷 14541
贸 14540
费 14539
贺 14538
贻 14537
贼 14536
贾 14535
贿 14534
赁 14533
赂 14532
赃 14531
资 14530
赅 14529
赈 14528
赊 14527
赋 14526
赌 14525
赎 14524
赏 14523
赐 14522
赓 14521
赔 14520
赖 14519
赘 14518
赚 14517
赛 14516
赝 14515
赞 14514
赠 14513
赡 14512
赢 14511
赣 14510
赤 14509
赦 14508
赧 14507
赫 14506
赭 14505
走 14504
赳 14503
赴 14502
赵 14501
赶 14500
起 14499
趁 14498
超 14497
越 14496
趋 14495
趕 14494
趙 14493
趟 14492
趣 14491
趨 14490
足 14489
趴 14488
趵 14487
趸 14486
趺 14485
趾 14484
跃 14483
跄 14482
跆 14481
跋 14480
跌 14479
跎 14478
跑 14477
跖 14476
跚 14475
跛 14474
距 14473
跟 14472
跡 14471
跤 14470
跨 14469
跩 14468
跪 14467
路 14466
跳 14465
践 14464
跷 14463
跹 14462
跺 14461
跻 14460
踉 14459
踊 14458
踌 14457
踏 14456
踐 14455
踝 14454
踞 14453
踟 14452
踢 14451
踩 14450
踪 14449
踮 14448
踱 14447
踴 14446
踵 14445
踹 14444
蹂 14443
蹄 14442
蹇 14441
蹈 14440
蹉 14439
蹊 14438
蹋 14437
蹑 14436
蹒 14435
蹙 14434
蹟 14433
蹣 14432
蹤 14431
蹦 14430
蹩 14429
蹬 14428
蹭 14427
蹲 14426
蹴 14425
蹶 14424
蹺 14423
蹼 14422
蹿 14421
躁 14420
躇 14419
躉 14418
躊 14417
躋 14416
躍 14415
躏 14414
躪 14413
身 14412
躬 14411
躯 14410
躲 14409
躺 14408
軀 14407
車 14406
軋 14405
軌 14404
軍 14403
軒 14402
軟 14401
転 14400
軸 14399
軼 14398
軽 14397
軾 14396
較 14395
載 14394
輒 14393
輓 14392
輔 14391
輕 14390
輛 14389
輝 14388
輟 14387
輩 14386
輪 14385
輯 14384
輸 14383
輻 14382
輾 14381
輿 14380
轄 14379
轅 14378
轆 14377
轉 14376
轍 14375
轎 14374
轟 14373
车 14372
轧 14371
轨 14370
轩 14369
转 14368
轭 14367
轮 14366
软 14365
轰 14364
轲 14363
轴 14362
轶 14361
轻 14360
轼 14359
载 14358
轿 14357
较 14356
辄 14355
辅 14354
辆 14353
辇 14352
辈 14351
辉 14350
辊 14349
辍 14348
辐 14347
辑 14346
输 14345
辕 14344
辖 14343
辗 14342
辘 14341
辙 14340
辛 14339
辜 14338
辞 14337
辟 14336
辣 14335
辦 14334
辨 14333
辩 14332
辫 14331
辭 14330
辮 14329
辯 14328
辰 14327
辱 14326
農 14325
边 14324
辺 14323
辻 14322
込 14321
辽 14320
达 14319
迁 14318
迂 14317
迄 14316
迅 14315
过 14314
迈 14313
迎 14312
运 14311
近 14310
返 14309
还 14308
这 14307
进 14306
远 14305
违 14304
连 14303
迟 14302
迢 14301
迤 14300
迥 14299
迦 14298
迩 14297
迪 14296
迫 14295
迭 14294
述 14293
迴 14292
迷 14291
迸 14290
迹 14289
迺 14288
追 14287
退 14286
送 14285
适 14284
逃 14283
逅 14282
逆 14281
选 14280
逊 14279
逍 14278
透 14277
逐 14276
递 14275
途 14274
逕 14273
逗 14272
這 14271
通 14270
逛 14269
逝 14268
逞 14267
速 14266
造 14265
逢 14264
連 14263
逮 14262
週 14261
進 14260
逵 14259
逶 14258
逸 14257
逻 14256
逼 14255
逾 14254
遁 14253
遂 14252
遅 14251
遇 14250
遊 14249
運 14248
遍 14247
過 14246
遏 14245
遐 14244
遑 14243
遒 14242
道 14241
達 14240
違 14239
遗 14238
遙 14237
遛 14236
遜 14235
遞 14234
遠 14233
遢 14232
遣 14231
遥 14230
遨 14229
適 14228
遭 14227
遮 14226
遲 14225
遴 14224
遵 14223
遶 14222
遷 14221
選 14220
遺 14219
遼 14218
遽 14217
避 14216
邀 14215
邁 14214
邂 14213
邃 14212
還 14211
邇 14210
邈 14209
邊 14208
邋 14207
邏 14206
邑 14205
邓 14204
邕 14203
邛 14202
邝 14201
邢 14200
那 14199
邦 14198
邨 14197
邪 14196
邬 14195
邮 14194
邯 14193
邰 14192
邱 14191
邳 14190
邵 14189
邸 14188
邹 14187
邺 14186
邻 14185
郁 14184
郅 14183
郊 14182
郎 14181
郑 14180
郜 14179
郝 14178
郡 14177
郢 14176
郤 14175
郦 14174
郧 14173
部 14172
郫 14171
郭 14170
郴 14169
郵 14168
郷 14167
郸 14166
都 14165
鄂 14164
鄉 14163
鄒 14162
鄔 14161
鄙 14160
鄞 14159
鄢 14158
鄧 14157
鄭 14156
鄰 14155
鄱 14154
鄲 14153
鄺 14152
酉 14151
酊 14150
酋 14149
酌 14148
配 14147
酐 14146
酒 14145
酗 14144
酚 14143
酝 14142
酢 14141
酣 14140
酥 14139
酩 14138
酪 14137
酬 14136
酮 14135
酯 14134
酰 14133
酱 14132
酵 14131
酶 14130
酷 14129
酸 14128
酿 14127
醃 14126
醇 14125
醉 14124
醋 14123
醍 14122
醐 14121
醒 14120
醚 14119
醛 14118
醜 14117
醞 14116
醣 14115
醪 14114
醫 14113
醬 14112
醮 14111
醯 14110
醴 14109
醺 14108
釀 14107
釁 14106
采 14105
釉 14104
释 14103
釋 14102
里 14101
重 14100
野 14099
量 14098
釐 14097
金 14096
釗 14095
釘 14094
釜 14093
針 14092
釣 14091
釦 14090
釧 14089
釵 14088
鈀 14087
鈉 14086
鈍 14085
鈎 14084
鈔 14083
鈕 14082
鈞 14081
鈣 14080
鈦 14079
鈪 14078
鈴 14077
鈺 14076
鈾 14075
鉀 14074
鉄 14073
鉅 14072
鉉 14071
鉑 14070
鉗 14069
鉚 14068
鉛 14067
鉤 14066
鉴 14065
鉻 14064
銀 14063
銃 14062
銅 14061
銑 14060
銓 14059
銖 14058
銘 14057
銜 14056
銬 14055
銭 14054
銮 14053
銳 14052
銷 14051
銹 14050
鋁 14049
鋅 14048
鋒 14047
鋤 14046
鋪 14045
鋰 14044
鋸 14043
鋼 14042
錄 14041
錐 14040
錘 14039
錚 14038
錠 14037
錢 14036
錦 14035
錨 14034
錫 14033
錮 14032
錯 14031
録 14030
錳 14029
錶 14028
鍊 14027
鍋 14026
鍍 14025
鍛 14024
鍥 14023
鍰 14022
鍵 14021
鍺 14020
鍾 14019
鎂 14018
鎊 14017
鎌 14016
鎏 14015
鎔 14014
鎖 14013
鎗 14012
鎚 14011
鎧 14010
鎬 14009
鎮 14008
鎳 14007
鏈 14006
鏖 14005
鏗 14004
鏘 14003
鏞 14002
鏟 14001
鏡 14000
鏢 13999
鏤 13998
鏽 13997
鐘 13996
鐮 13995
鐲 13994
鐳 13993
鐵 13992
鐸 13991
鐺 13990
鑄 13989
鑊 13988
鑑 13987
鑒 13986
鑣 13985
鑫 13984
鑰 13983
鑲 13982
鑼 13981
鑽 13980
鑾 13979
鑿 13978
针 13977
钉 13976
钊 13975
钎 13974
钏 13973
钒 13972
钓 13971
钗 13970
钙 13969
钛 13968
钜 13967
钝 13966
钞 13965
钟 13964
钠 13963
钡 13962
钢 13961
钣 13960
钤 13959
钥 13958
钦 13957
钧 13956
钨 13955
钩 13954
钮 13953
钯 13952
钰 13951
钱 13950
钳 13949
钴 13948
钵 13947
钺 13946
钻 13945
钼 13944
钾 13943
钿 13942
铀 13941
铁 13940
铂 13939
铃 13938
铄 13937
铅 13936
铆 13935
铉 13934
铎 13933
铐 13932
铛 13931
铜 13930
铝 13929
铠 13928
铡 13927
铢 13926
铣 13925
铤 13924
铨 13923
铩 13922
铬 13921
铭 13920
铮 13919
铰 13918
铲 13917
铵 13916
银 13915
铸 13914
铺 13913
链 13912
铿 13911
销 13910
锁 13909
锂 13908
锄 13907
锅 13906
锆 13905
锈 13904
锉 13903
锋 13902
锌 13901
锏 13900
锐 13899
锑 13898
错 13897
锚 13896
锟 13895
锡 13894
锢 13893
锣 13892
锤 13891
锥 13890
锦 13889
锭 13888
键 13887
锯 13886
锰 13885
锲 13884
锵 13883
锹 13882
锺 13881
锻 13880
镀 13879
镁 13878
镂 13877
镇 13876
镉 13875
镌 13874
镍 13873
镐 13872
镑 13871
镕 13870
镖 13869
镗 13868
镛 13867
镜 13866
镣 13865
镭 13864
镯 13863
镰 13862
镳 13861
镶 13860
長 13859
长 13858
門 13857
閃 13856
閉 13855
開 13854
閎 13853
閏 13852
閑 13851
閒 13850
間 13849
閔 13848
閘 13847
閡 13846
関 13845
閣 13844
閥 13843
閨 13842
閩 13841
閱 13840
閲 13839
閹 13838
閻 13837
閾 13836
闆 13835
闇 13834
闊 13833
闌 13832
闍 13831
闔 13830
闕 13829
闖 13828
闘 13827
關 13826
闡 13825
闢 13824
门 13823
闪 13822
闫 13821
闭 13820
问 13819
闯 13818
闰 13817
闲 13816
间 13815
闵 13814
闷 13813
闸 13812
闹 13811
闺 13810
闻 13809
闽 13808
闾 13807
阀 13806
阁 13805
阂 13804
阅 13803
阆 13802
阇 13801
阈 13800
阉 13799
阎 13798
阐 13797
阑 13796
阔 13795
阕 13794
阖 13793
阙 13792
阚 13791
阜 13790
队 13789
阡 13788
阪 13787
阮 13786
阱 13785
防 13784
阳 13783
阴 13782
阵 13781
阶 13780
阻 13779
阿 13778
陀 13777
陂 13776
附 13775
际 13774
陆 13773
陇 13772
陈 13771
陋 13770
陌 13769
降 13768
限 13767
陕 13766
陛 13765
陝 13764
陞 13763
陟 13762
陡 13761
院 13760
陣 13759
除 13758
陨 13757
险 13756
陪 13755
陰 13754
陲 13753
陳 13752
陵 13751
陶 13750
陷 13749
陸 13748
険 13747
陽 13746
隅 13745
隆 13744
隈 13743
隊 13742
隋 13741
隍 13740
階 13739
随 13738
隐 13737
隔 13736
隕 13735
隘 13734
隙 13733
際 13732
障 13731
隠 13730
隣 13729
隧 13728
隨 13727
險 13726
隱 13725
隴 13724
隶 13723
隸 13722
隻 13721
隼 13720
隽 13719
难 13718
雀 13717
雁 13716
雄 13715
雅 13714
集 13713
雇 13712
雉 13711
雋 13710
雌 13709
雍 13708
雎 13707
雏 13706
雑 13705
雒 13704
雕 13703
雖 13702
雙 13701
雛 13700
雜 13699
雞 13698
離 13697
難 13696
雨 13695
雪 13694
雯 13693
雰 13692
雲 13691
雳 13690
零 13689
雷 13688
雹 13687
電 13686
雾 13685
需 13684
霁 13683
霄 13682
霆 13681
震 13680
霈 13679
霉 13678
霊 13677
霍 13676
霎 13675
霏 13674
霑 13673
霓 13672
霖 13671
霜 13670
霞 13669
霧 13668
霭 13667
霰 13666
露 13665
霸 13664
霹 13663
霽 13662
霾 13661
靂 13660
靄 13659
靈 13658
青 13657
靓 13656
靖 13655
静 13654
靚 13653
靛 13652
靜 13651
非 13650
靠 13649
靡 13648
面 13647
靥 13646
靦 13645
革 13644
靳 13643
靴 13642
靶 13641
靼 13640
鞅 13639
鞋 13638
鞍 13637
鞏 13636
鞑 13635
鞘 13634
鞠 13633
鞣 13632
鞦 13631
鞭 13630
韆 13629
韋 13628
韌 13627
韓 13626
韜 13625
韦 13624
韧 13623
韩 13622
韬 13621
韭 13620
音 13619
韵 13618
韶 13617
韻 13616
響 13615
頁 13614
頂 13613
頃 13612
項 13611
順 13610
須 13609
頌 13608
預 13607
頑 13606
頒 13605
頓 13604
頗 13603
領 13602
頜 13601
頡 13600
頤 13599
頫 13598
頭 13597
頰 13596
頷 13595
頸 13594
頹 13593
頻 13592
頼 13591
顆 13590
題 13589
額 13588
顎 13587
顏 13586
顔 13585
願 13584
顛 13583
類 13582
顧 13581
顫 13580
顯 13579
顱 13578
顴 13577
页 13576
顶 13575
顷 13574
项 13573
顺 13572
须 13571
顼 13570
顽 13569
顾 13568
顿 13567
颁 13566
颂 13565
预 13564
颅 13563
领 13562
颇 13561
颈 13560
颉 13559
颊 13558
颌 13557
颍 13556
颐 13555
频 13554
颓 13553
颔 13552
颖 13551
颗 13550
题 13549
颚 13548
颛 13547
颜 13546
额 13545
颞 13544
颠 13543
颡 13542
颢 13541
颤 13540
颦 13539
颧 13538
風 13537
颯 13536
颱 13535
颳 13534
颶 13533
颼 13532
飄 13531
飆 13530
风 13529
飒 13528
飓 13527
飕 13526
飘 13525
飙 13524
飚 13523
飛 13522
飞 13521
食 13520
飢 13519
飨 13518
飩 13517
飪 13516
飯 13515
飲 13514
飼 13513
飽 13512
飾 13511
餃 13510
餅 13509
餉 13508
養 13507
餌 13506
餐 13505
餒 13504
餓 13503
餘 13502
餚 13501
餛 13500
餞 13499
餡 13498
館 13497
餮 13496
餵 13495
餾 13494
饅 13493
饈 13492
饋 13491
饌 13490
饍 13489
饑 13488
饒 13487
饕 13486
饗 13485
饞 13484
饥 13483
饨 13482
饪 13481
饬 13480
饭 13479
饮 13478
饯 13477
饰 13476
饱 13475
饲 13474
饴 13473
饵 13472
饶 13471
饷 13470
饺 13469
饼 13468
饽 13467
饿 13466
馀 13465
馁 13464
馄 13463
馅 13462
馆 13461
馈 13460
馋 13459
馍 13458
馏 13457
馒 13456
馔 13455
首 13454
馗 13453
香 13452
馥 13451
馨 13450
馬 13449
馭 13448
馮 13447
馳 13446
馴 13445
駁 13444
駄 13443
駅 13442
駆 13441
駐 13440
駒 13439
駕 13438
駛 13437
駝 13436
駭 13435
駱 13434
駿 13433
騁 13432
騎 13431
騏 13430
験 13429
騙 13428
騨 13427
騰 13426
騷 13425
驀 13424
驅 13423
驊 13422
驍 13421
驒 13420
驕 13419
驗 13418
驚 13417
驛 13416
驟 13415
驢 13414
驥 13413
马 13412
驭 13411
驮 13410
驯 13409
驰 13408
驱 13407
驳 13406
驴 13405
驶 13404
驷 13403
驸 13402
驹 13401
驻 13400
驼 13399
驾 13398
驿 13397
骁 13396
骂 13395
骄 13394
骅 13393
骆 13392
骇 13391
骈 13390
骊 13389
骋 13388
验 13387
骏 13386
骐 13385
骑 13384
骗 13383
骚 13382
骛 13381
骜 13380
骞 13379
骠 13378
骡 13377
骤 13376
骥 13375
骧 13374
骨 13373
骯 13372
骰 13371
骶 13370
骷 13369
骸 13368
骼 13367
髂 13366
髅 13365
髋 13364
髏 13363
髒 13362
髓 13361
體 13360
髖 13359
高 13358
髦 13357
髪 13356
髮 13355
髯 13354
髻 13353
鬃 13352
鬆 13351
鬍 13350
鬓 13349
鬚 13348
鬟 13347
鬢 13346
鬣 13345
鬥 13344
鬧 13343
鬱 13342
鬼 13341
魁 13340
魂 13339
魄 13338
魅 13337
魇 13336
魍 13335
魏 13334
魔 13333
魘 13332
魚 13331
魯 13330
魷 13329
鮑 13328
鮨 13327
鮪 13326
鮭 13325
鮮 13324
鯉 13323
鯊 13322
鯖 13321
鯛 13320
鯨 13319
鯰 13318
鯽 13317
鰍 13316
鰓 13315
鰭 13314
鰲 13313
鰻 13312
鰾 13311
鱈 13310
鱉 13309
鱔 13308
鱗 13307
鱷 13306
鱸 13305
鱼 13304
鱿 13303
鲁 13302
鲈 13301
鲍 13300
鲑 13299
鲛 13298
鲜 13297
鲟 13296
鲢 13295
鲤 13294
鲨 13293
鲫 13292
鲱 13291
鲲 13290
鲶 13289
鲷 13288
鲸 13287
鳃 13286
鳄 13285
鳅 13284
鳌 13283
鳍 13282
鳕 13281
鳖 13280
鳗 13279
鳝 13278
鳞 13277
鳥 13276
鳩 13275
鳳 13274
鳴 13273
鳶 13272
鴉 13271
鴕 13270
鴛 13269
鴦 13268
鴨 13267
鴻 13266
鴿 13265
鵑 13264
鵜 13263
鵝 13262
鵡 13261
鵬 13260
鵰 13259
鵲 13258
鶘 13257
鶩 13256
鶯 13255
鶴 13254
鷗 13253
鷲 13252
鷹 13251
鷺 13250
鸚 13249
鸞 13248
鸟 13247
鸠 13246
鸡 13245
鸢 13244
鸣 13243
鸥 13242
鸦 13241
鸨 13240
鸪 13239
鸭 13238
鸯 13237
鸳 13236
鸵 13235
鸽 13234
鸾 13233
鸿 13232
鹂 13231
鹃 13230
鹄 13229
鹅 13228
鹈 13227
鹉 13226
鹊 13225
鹌 13224
鹏 13223
鹑 13222
鹕 13221
鹘 13220
鹜 13219
鹞 13218
鹤 13217
鹦 13216
鹧 13215
鹫 13214
鹭 13213
鹰 13212
鹳 13211
鹵 13210
鹹 13209
鹼 13208
鹽 13207
鹿 13206
麂 13205
麋 13204
麒 13203
麓 13202
麗 13201
麝 13200
麟 13199
麥 13198
麦 13197
麩 13196
麴 13195
麵 13194
麸 13193
麺 13192
麻 13191
麼 13190
麽 13189
麾 13188
黃 13187
黄 13186
黍 13185
黎 13184
黏 13183
黑 13182
黒 13181
黔 13180
默 13179
黛 13178
黜 13177
黝 13176
點 13175
黠 13174
黨 13173
黯 13172
黴 13171
鼋 13170
鼎 13169
鼐 13168
鼓 13167
鼠 13166
鼬 13165
鼹 13164
鼻 13163
鼾 13162
齁 13161
齊 13160
齋 13159
齐 13158
齒 13157
齡 13156
齢 13155
齣 13154
齦 13153
齿 13152
龄 13151
龅 13150
龈 13149
龊 13148
龋 13147
龌 13146
龍 13145
龐 13144
龔 13143
龕 13142
龙 13141
龚 13140
龛 13139
龜 13138
龟 13137
︰ 13136
︱ 13135
︶ 13134
︿ 13133
﹁ 13132
﹂ 13131
﹍ 13130
﹏ 13129
﹐ 13128
﹑ 13127
﹒ 13126
﹔ 13125
﹕ 13124
﹖ 13123
﹗ 13122
﹙ 13121
﹚ 13120
﹝ 13119
﹞ 13118
﹡ 13117
﹣ 13116
！ 13115
＂ 13114
＃ 13113
＄ 13112
％ 13111
＆ 13110
＇ 13109
（ 13108
） 13107
＊ 13106
＋ 13105
， 13104
－ 13103
． 13102
／ 13101
０ 13100
１ 13099
２ 13098
３ 13097
４ 13096
５ 13095
６ 13094
７ 13093
８ 13092
９ 13091
： 13090
； 13089
＜ 13088
＝ 13087
＞ 13086
？ 13085
＠ 13084
［ 13083
＼ 13082
］ 13081
＾ 13080
＿ 13079
｀ 13078
ａ 13077
ｂ 13076
ｃ 13075
ｄ 13074
ｅ 13073
ｆ 13072
ｇ 13071
ｈ 13070
ｉ 13069
ｊ 13068
ｋ 13067
ｌ 13066
ｍ 13065
ｎ 13064
ｏ 13063
ｐ 13062
ｑ 13061
ｒ 13060
ｓ 13059
ｔ 13058
ｕ 13057
ｖ 13056
ｗ 13055
ｘ 13054
ｙ 13053
ｚ 13052
｛ 13051
｜ 13050
｝ 13049
～ 13048
｡ 13047
｢ 13046
｣ 13045
､ 13044
･ 13043
ｯ 13042
ｰ 13041
ｲ 13040
ｸ 13039
ｼ 13038
ｽ 13037
ﾄ 13036
ﾉ 13035
ﾌ 13034
ﾗ 13033
ﾙ 13032
ﾝ 13031
ﾞ 13030
ﾟ 13029
￣ 13028
￥ 13027
👍 13026
🔥 13025
😂 13024
😎 13023
... 13022
yam 13021
10 13020
2017 13019
12 13018
11 13017
2016 13016
20 13015
30 13014
15 13013
06 13012
lofter 13011
##s 13010
2015 13009
by 13008
16 13007
14 13006
18 13005
13 13004
24 13003
17 13002
2014 13001
21 13000
##0 12999
22 12998
19 12997
25 12996
23 12995
com 12994
100 12993
00 12992
05 12991
2013 12990
##a 12989
03 12988
09 12987
08 12986
28 12985
##2 12984
50 12983
01 12982
04 12981
##1 12980
27 12979
02 12978
2012 12977
##3 12976
26 12975
##e 12974
07 12973
##8 12972
##5 12971
##6 12970
##4 12969
##9 12968
##7 12967
29 12966
2011 12965
40 12964
##t 12963
2010 12962
##o 12961
##d 12960
##i 12959
2009 12958
##n 12957
app 12956
www 12955
the 12954
##m 12953
31 12952
##c 12951
##l 12950
##y 12949
##r 12948
##g 12947
2008 12946
60 12945
http 12944
200 12943
qq 12942
##p 12941
80 12940
##f 12939
google 12938
pixnet 12937
90 12936
cookies 12935
tripadvisor 12934
500 12933
##er 12932
##k 12931
35 12930
##h 12929
facebook 12928
2007 12927
2000 12926
70 12925
##b 12924
of 12923
##x 12922
##u 12921
45 12920
300 12919
iphone 12918
32 12917
1000 12916
2006 12915
48 12914
ip 12913
36 12912
in 12911
38 12910
3d 12909
##w 12908
##ing 12907
55 12906
ctrip 12905
##on 12904
##v 12903
33 12902
##の 12901
to 12900
34 12899
400 12898
id 12897
2005 12896
it 12895
37 12894
windows 12893
llc 12892
top 12891
99 12890
42 12889
39 12888
000 12887
led 12886
at 12885
##an 12884
41 12883
51 12882
52 12881
46 12880
49 12879
43 12878
53 12877
44 12876
##z 12875
android 12874
58 12873
and 12872
59 12871
2004 12870
56 12869
vr 12868
##か 12867
5000 12866
2003 12865
47 12864
blogthis 12863
twitter 12862
54 12861
##le 12860
150 12859
ok 12858
2018 12857
57 12856
75 12855
cn 12854
no 12853
ios 12852
##in 12851
##mm 12850
##00 12849
800 12848
on 12847
te 12846
3000 12845
65 12844
2001 12843
360 12842
95 12841
ig 12840
lv 12839
120 12838
##ng 12837
##を 12836
##us 12835
##に 12834
pc 12833
てす 12832
── 12831
600 12830
##te 12829
85 12828
2002 12827
88 12826
##ed 12825
html 12824
ncc 12823
wifi 12822
email 12821
64 12820
blog 12819
is 12818
##10 12817
##て 12816
mail 12815
online 12814
##al 12813
dvd 12812
##ic 12811
studio 12810
##は 12809
##℃ 12808
##ia 12807
##と 12806
line 12805
vip 12804
72 12803
##q 12802
98 12801
##ce 12800
##en 12799
for 12798
##is 12797
##ra 12796
##es 12795
##j 12794
usb 12793
net 12792
cp 12791
1999 12790
asia 12789
4g 12788
##cm 12787
diy 12786
new 12785
3c 12784
##お 12783
ta 12782
66 12781
language 12780
vs 12779
apple 12778
tw 12777
86 12776
web 12775
##ne 12774
ipad 12773
62 12772
you 12771
##re 12770
101 12769
68 12768
##tion 12767
ps 12766
de 12765
bt 12764
pony 12763
atm 12762
##2017 12761
1998 12760
67 12759
##ch 12758
ceo 12757
##or 12756
go 12755
##na 12754
av 12753
pro 12752
cafe 12751
96 12750
pinterest 12749
97 12748
63 12747
pixstyleme3c 12746
##ta 12745
more 12744
said 12743
##2016 12742
1997 12741
mp3 12740
700 12739
##ll 12738
nba 12737
jun 12736
##20 12735
92 12734
tv 12733
1995 12732
pm 12731
61 12730
76 12729
nbsp 12728
250 12727
##ie 12726
linux 12725
##ma 12724
cd 12723
110 12722
hd 12721
##17 12720
78 12719
##ion 12718
77 12717
6000 12716
am 12715
##th 12714
##st 12713
94 12712
##se 12711
##et 12710
69 12709
180 12708
gdp 12707
my 12706
105 12705
81 12704
abc 12703
89 12702
flash 12701
79 12700
one 12699
93 12698
1990 12697
1996 12696
##ck 12695
gps 12694
##も 12693
##ly 12692
web885 12691
106 12690
2020 12689
91 12688
##ge 12687
4000 12686
1500 12685
xd 12684
boss 12683
isbn 12682
1994 12681
org 12680
##ry 12679
me 12678
love 12677
##11 12676
0fork 12675
73 12674
##12 12673
3g 12672
##ter 12671
##ar 12670
71 12669
82 12668
##la 12667
hotel 12666
130 12665
1970 12664
pk 12663
83 12662
87 12661
140 12660
ie 12659
##os 12658
##30 12657
##el 12656
74 12655
##50 12654
seo 12653
cpu 12652
##ml 12651
p2p 12650
84 12649
may 12648
##る 12647
sun 12646
tue 12645
internet 12644
cc 12643
posted 12642
youtube 12641
##at 12640
##ン 12639
##man 12638
ii 12637
##ル 12636
##15 12635
abs 12634
nt 12633
pdf 12632
yahoo 12631
ago 12630
1980 12629
##it 12628
news 12627
mac 12626
104 12625
##てす 12624
##me 12623
##り 12622
java 12621
1992 12620
spa 12619
##de 12618
##nt 12617
hk 12616
all 12615
plus 12614
la 12613
1993 12612
##mb 12611
##16 12610
##ve 12609
west 12608
##da 12607
160 12606
air 12605
##い 12604
##ps 12603
から 12602
##to 12601
1989 12600
logo 12599
htc 12598
php 12597
https 12596
fi 12595
momo 12594
##son 12593
sat 12592
##ke 12591
##80 12590
ebd 12589
suv 12588
wi 12587
day 12586
apk 12585
##88 12584
##um 12583
mv 12582
galaxy 12581
wiki 12580
or 12579
brake 12578
##ス 12577
1200 12576
する 12575
this 12574
1991 12573
mon 12572
##こ 12571
❤2017 12570
po 12569
##ない 12568
javascript 12567
life 12566
home 12565
june 12564
##ss 12563
system 12562
900 12561
##ー 12560
##０ 12559
pp 12558
1988 12557
world 12556
fb 12555
4k 12554
br 12553
##as 12552
ic 12551
ai 12550
leonardo 12549
safari 12548
##60 12547
live 12546
free 12545
xx 12544
wed 12543
win7 12542
kiehl 12541
##co 12540
lg 12539
o2o 12538
##go 12537
us 12536
235 12535
1949 12534
mm 12533
しい 12532
vfm 12531
kanye 12530
##90 12529
##2015 12528
##id 12527
jr 12526
##ey 12525
123 12524
rss 12523
##sa 12522
##ro 12521
##am 12520
##no 12519
thu 12518
fri 12517
350 12516
##sh 12515
##ki 12514
103 12513
comments 12512
name 12511
##のて 12510
##pe 12509
##ine 12508
max 12507
1987 12506
8000 12505
uber 12504
##mi 12503
##ton 12502
wordpress 12501
office 12500
1986 12499
1985 12498
##ment 12497
107 12496
bd 12495
win10 12494
##ld 12493
##li 12492
gmail 12491
bb 12490
dior 12489
##rs 12488
##ri 12487
##rd 12486
##ます 12485
up 12484
cad 12483
##® 12482
dr 12481
して 12480
read 12479
##21 12478
をお 12477
##io 12476
##99 12475
url 12474
1984 12473
pvc 12472
paypal 12471
show 12470
policy 12469
##40 12468
##ty 12467
##18 12466
with 12465
##★ 12464
##01 12463
txt 12462
102 12461
##ba 12460
dna 12459
from 12458
post 12457
mini 12456
ar 12455
taiwan 12454
john 12453
##ga 12452
privacy 12451
agoda 12450
##13 12449
##ny 12448
word 12447
##24 12446
##22 12445
##by 12444
##ur 12443
##hz 12442
1982 12441
##ang 12440
265 12439
cookie 12438
netscape 12437
108 12436
##ka 12435
##～ 12434
##ad 12433
house 12432
share 12431
note 12430
ibm 12429
code 12428
hello 12427
nike 12426
sim 12425
survey 12424
##016 12423
1979 12422
1950 12421
wikia 12420
##32 12419
##017 12418
5g 12417
cbc 12416
##tor 12415
##kg 12414
1983 12413
##rt 12412
##14 12411
campaign 12410
store 12409
2500 12408
os 12407
##ct 12406
##ts 12405
##° 12404
170 12403
api 12402
##ns 12401
365 12400
excel 12399
##な 12398
##ao 12397
##ら 12396
##し 12395
～～ 12394
##nd 12393
university 12392
163 12391
には 12390
518 12389
##70 12388
##ya 12387
##il 12386
##25 12385
pierre 12384
ipo 12383
0020 12382
897 12381
##23 12380
hotels 12379
##ian 12378
のお 12377
125 12376
years 12375
6606 12374
##ers 12373
##26 12372
high 12371
##day 12370
time 12369
##ay 12368
bug 12367
##line 12366
##く 12365
##す 12364
##be 12363
xp 12362
talk2yam 12361
yamservice 12360
10000 12359
coco 12358
##dy 12357
sony 12356
##ies 12355
1978 12354
microsoft 12353
david 12352
people 12351
##ha 12350
1960 12349
instagram 12348
intel 12347
その 12346
##ot 12345
iso 12344
1981 12343
##va 12342
115 12341
##mo 12340
##land 12339
xxx 12338
man 12337
co 12336
ltxsw 12335
##ation 12334
baby 12333
220 12332
##pa 12331
##ol 12330
1945 12329
7000 12328
tag 12327
450 12326
##ue 12325
msn 12324
##31 12323
oppo 12322
##ト 12321
##ca 12320
control 12319
##om 12318
st 12317
chrome 12316
##ure 12315
##ん 12314
be 12313
##き 12312
lol 12311
##19 12310
した 12309
##bo 12308
240 12307
lady 12306
##100 12305
##way 12304
##から 12303
4600 12302
##ko 12301
##do 12300
##un 12299
4s 12298
corporation 12297
168 12296
##ni 12295
herme 12294
##28 12293
ｃｐ 12292
978 12291
##up 12290
##06 12289
ui 12288
##ds 12287
ppt 12286
admin 12285
three 12284
します 12283
bbc 12282
re 12281
128 12280
##48 12279
ca 12278
##015 12277
##35 12276
hp 12275
##ee 12274
tpp 12273
##た 12272
##ive 12271
×× 12270
root 12269
##cc 12268
##ました 12267
##ble 12266
##ity 12265
adobe 12264
park 12263
114 12262
et 12261
oled 12260
city 12259
##ex 12258
##ler 12257
##ap 12256
china 12255
##book 12254
20000 12253
view 12252
##ice 12251
global 12250
##km 12249
your 12248
hong 12247
##mg 12246
out 12245
##ms 12244
ng 12243
ebay 12242
##29 12241
menu 12240
ubuntu 12239
##cy 12238
rom 12237
##view 12236
open 12235
ktv 12234
do 12233
server 12232
##lo 12231
if 12230
english 12229
##ね 12228
##５ 12227
##oo 12226
1600 12225
##02 12224
step1 12223
kong 12222
club 12221
135 12220
july 12219
inc 12218
1976 12217
mr 12216
hi 12215
##net 12214
touch 12213
##ls 12212
##ii 12211
michael 12210
lcd 12209
##05 12208
##33 12207
phone 12206
james 12205
step2 12204
1300 12203
ios9 12202
##box 12201
dc 12200
##２ 12199
##ley 12198
samsung 12197
111 12196
280 12195
pokemon 12194
css 12193
##ent 12192
##les 12191
いいえ 12190
##１ 12189
s8 12188
atom 12187
play 12186
bmw 12185
##said 12184
sa 12183
etf 12182
ctrl 12181
♥yoyo♥ 12180
##55 12179
2025 12178
##2014 12177
##66 12176
adidas 12175
amazon 12174
1958 12173
##ber 12172
##ner 12171
visa 12170
##77 12169
##der 12168
1800 12167
connectivity 12166
##hi 12165
firefox 12164
109 12163
118 12162
hr 12161
so 12160
style 12159
mark 12158
pop 12157
ol 12156
skip 12155
1975 12154
as 12153
##27 12152
##ir 12151
##61 12150
190 12149
mba 12148
##う 12147
##ai 12146
le 12145
##ver 12144
1900 12143
cafe2017 12142
lte 12141
super 12140
113 12139
129 12138
##ron 12137
amd 12136
like 12135
##☆ 12134
are 12133
##ster 12132
we 12131
##sk 12130
paul 12129
data 12128
international 12127
##ft 12126
longchamp 12125
ssd 12124
good 12123
##ート 12122
##ti 12121
reply 12120
##my 12119
↓↓↓ 12118
apr 12117
star 12116
##ker 12115
source 12114
136 12113
js 12112
112 12111
get 12110
force 12109
photo 12108
##one 12107
126 12106
##2013 12105
##ow 12104
link 12103
bbs 12102
1972 12101
goods 12100
##lin 12099
python 12098
119 12097
##ip 12096
game 12095
##ics 12094
##ません 12093
blue 12092
##● 12091
520 12090
##45 12089
page 12088
itunes 12087
##03 12086
1955 12085
260 12084
1968 12083
gt 12082
gif 12081
618 12080
##ff 12079
##47 12078
group 12077
くたさい 12076
about 12075
bar 12074
ganji 12073
##nce 12072
music 12071
lee 12070
not 12069
1977 12068
1971 12067
1973 12066
##per 12065
an 12064
faq 12063
comment 12062
##って 12061
days 12060
##ock 12059
116 12058
##bs 12057
1974 12056
1969 12055
v1 12054
player 12053
1956 12052
xbox 12051
sql 12050
fm 12049
f1 12048
139 12047
##ah 12046
210 12045
##lv 12044
##mp 12043
##000 12042
melody 12041
1957 12040
##３ 12039
550 12038
17life 12037
199 12036
1966 12035
xml 12034
market 12033
##au 12032
##71 12031
999 12030
##04 12029
what 12028
gl 12027
##95 12026
##age 12025
tips 12024
##68 12023
book 12022
##ting 12021
mysql 12020
can 12019
1959 12018
230 12017
##ung 12016
wonderland 12015
watch 12014
10℃ 12013
##ction 12012
9000 12011
mar 12010
mobile 12009
1946 12008
1962 12007
article 12006
##db 12005
part 12004
▲top 12003
party 12002
って 12001
1967 12000
1964 11999
1948 11998
##07 11997
##ore 11996
##op 11995
この 11994
dj 11993
##78 11992
##38 11991
010 11990
main 11989
225 11988
1965 11987
##ong 11986
art 11985
320 11984
ad 11983
134 11982
020 11981
##73 11980
117 11979
pm2 11978
japan 11977
228 11976
##08 11975
ts 11974
1963 11973
##ica 11972
der 11971
sm 11970
##36 11969
2019 11968
##wa 11967
ct 11966
##７ 11965
##や 11964
##64 11963
1937 11962
homemesh 11961
search 11960
##85 11959
##れは 11958
##tv 11957
##di 11956
macbook 11955
##９ 11954
##くたさい 11953
service 11952
##♥ 11951
type 11950
った 11949
750 11948
##ier 11947
##si 11946
##75 11945
##います 11944
##ok 11943
best 11942
##ット 11941
goris 11940
lock 11939
##った 11938
cf 11937
3m 11936
big 11935
##ut 11934
ftp 11933
carol 11932
##vi 11931
１０ 11930
1961 11929
happy 11928
sd 11927
##ac 11926
122 11925
anti 11924
pe 11923
cnn 11922
iii 11921
1920 11920
138 11919
##ラ 11918
1940 11917
esp 11916
jan 11915
tags 11914
##98 11913
##51 11912
august 11911
vol 11910
##86 11909
154 11908
##™ 11907
##fs 11906
##れ 11905
##sion 11904
design 11903
ac 11902
##ム 11901
press 11900
jordan 11899
ppp 11898
that 11897
key 11896
check 11895
##６ 11894
##tt 11893
##㎡ 11892
1080p 11891
##lt 11890
power 11889
##42 11888
1952 11887
##bc 11886
vivi 11885
##ック 11884
he 11883
133 11882
121 11881
jpg 11880
##rry 11879
201 11878
175 11877
3500 11876
1947 11875
nb 11874
##ted 11873
##rn 11872
しています 11871
1954 11870
usd 11869
##t00 11868
master 11867
##ンク 11866
001 11865
model 11864
##58 11863
al 11862
##09 11861
1953 11860
##34 11859
ram 11858
goo 11857
ても 11856
##ui 11855
127 11854
1930 11853
red 11852
##ary 11851
rpg 11850
item 11849
##pm 11848
##41 11847
270 11846
##za 11845
project 11844
##2012 11843
hot 11842
td 11841
blogabstract 11840
##ger 11839
##62 11838
650 11837
##44 11836
gr2 11835
##します 11834
##ｍ 11833
black 11832
electronic 11831
nfc 11830
year 11829
asus 11828
また 11827
html5 11826
cindy 11825
##hd 11824
m3 11823
132 11822
esc 11821
##od 11820
booking 11819
##53 11818
fed 11817
tvb 11816
##81 11815
##ina 11814
mit 11813
165 11812
##いる 11811
chan 11810
192 11809
distribution 11808
next 11807
になる 11806
peter 11805
bios 11804
steam 11803
cm 11802
1941 11801
にも 11800
pk10 11799
##ix 11798
##65 11797
##91 11796
dec 11795
nasa 11794
##ana 11793
icecat 11792
00z 11791
b1 11790
will 11789
##46 11788
li 11787
se 11786
##ji 11785
##み 11784
##ard 11783
oct 11782
##ain 11781
jp 11780
##ze 11779
##bi 11778
cio 11777
##56 11776
smart 11775
h5 11774
##39 11773
##port 11772
curve 11771
vpn 11770
##nm 11769
##dia 11768
utc 11767
##あり 11766
12345678910 11765
##52 11764
rmvb 11763
chanel 11762
a4 11761
miss 11760
##and 11759
##im 11758
media 11757
who 11756
##63 11755
she 11754
girl 11753
5s 11752
124 11751
vera 11750
##して 11749
class 11748
vivo 11747
king 11746
##フ 11745
##ei 11744
national 11743
ab 11742
1951 11741
5cm 11740
888 11739
145 11738
ipod 11737
ap 11736
1100 11735
5mm 11734
211 11733
ms 11732
2756 11731
##69 11730
mp4 11729
msci 11728
##po 11727
##89 11726
131 11725
mg 11724
index 11723
380 11722
##bit 11721
##out 11720
##zz 11719
##97 11718
##67 11717
158 11716
apec 11715
##８ 11714
photoshop 11713
opec 11712
￥799 11711
ては 11710
##96 11709
##tes 11708
##ast 11707
2g 11706
○○ 11705
##ール 11704
￥2899 11703
##ling 11702
##よ 11701
##ory 11700
1938 11699
##ical 11698
kitty 11697
content 11696
##43 11695
step3 11694
##cn 11693
win8 11692
155 11691
vc 11690
1400 11689
iphone7 11688
robert 11687
##した 11686
tcl 11685
137 11684
beauty 11683
##87 11682
en 11681
dollars 11680
##ys 11679
##oc 11678
step 11677
pay 11676
yy 11675
a1 11674
##2011 11673
##lly 11672
##ks 11671
##♪ 11670
1939 11669
188 11668
download 11667
1944 11666
sep 11665
exe 11664
ph 11663
います 11662
school 11661
gb 11660
center 11659
pr 11658
street 11657
##board 11656
uv 11655
##37 11654
##lan 11653
winrar 11652
##que 11651
##ua 11650
##com 11649
1942 11648
1936 11647
480 11646
gpu 11645
##４ 11644
ettoday 11643
fu 11642
tom 11641
##54 11640
##ren 11639
##via 11638
149 11637
##72 11636
b2b 11635
144 11634
##79 11633
##tch 11632
rose 11631
arm 11630
mb 11629
##49 11628
##ial 11627
##nn 11626
nvidia 11625
step4 11624
mvp 11623
00㎡ 11622
york 11621
156 11620
##イ 11619
how 11618
cpi 11617
591 11616
2765 11615
gov 11614
kg 11613
joe 11612
##xx 11611
mandy 11610
pa 11609
##ser 11608
copyright 11607
fashion 11606
1935 11605
don 11604
##け 11603
ecu 11602
##ist 11601
##art 11600
erp 11599
wap 11598
have 11597
##lm 11596
talk 11595
##ek 11594
##ning 11593
##if 11592
ch 11591
##ite 11590
video 11589
1943 11588
cs 11587
san 11586
iot 11585
look 11584
##84 11583
##2010 11582
##ku 11581
october 11580
##ux 11579
trump 11578
##hs 11577
##ide 11576
box 11575
141 11574
first 11573
##ins 11572
april 11571
##ight 11570
##83 11569
185 11568
angel 11567
protected 11566
aa 11565
151 11564
162 11563
x1 11562
m2 11561
##fe 11560
##× 11559
##ho 11558
size 11557
143 11556
min 11555
ofo 11554
fun 11553
gomaji 11552
ex 11551
hdmi 11550
food 11549
dns 11548
march 11547
chris 11546
kevin 11545
##のか 11544
##lla 11543
##pp 11542
##ec 11541
ag 11540
ems 11539
6s 11538
720p 11537
##rm 11536
##ham 11535
off 11534
##92 11533
asp 11532
team 11531
fandom 11530
ed 11529
299 11528
▌♥ 11527
##ell 11526
info 11525
されています 11524
##82 11523
sina 11522
4066 11521
161 11520
##able 11519
##ctor 11518
330 11517
399 11516
315 11515
dll 11514
rights 11513
ltd 11512
idc 11511
jul 11510
3kg 11509
1927 11508
142 11507
ma 11506
surface 11505
##76 11504
##ク 11503
～～～ 11502
304 11501
mall 11500
eps 11499
146 11498
green 11497
##59 11496
map 11495
space 11494
donald 11493
v2 11492
sodu 11491
##light 11490
1931 11489
148 11488
1700 11487
まて 11486
310 11485
reserved 11484
htm 11483
##han 11482
##57 11481
2d 11480
178 11479
mod 11478
##ise 11477
##tions 11476
152 11475
ti 11474
##shi 11473
doc 11472
1933 11471
icp 11470
055 11469
wang 11468
##ram 11467
shopping 11466
aug 11465
##pi 11464
##well 11463
now 11462
wam 11461
b2 11460
からお 11459
##hu 11458
236 11457
1928 11456
##gb 11455
266 11454
f2 11453
##93 11452
153 11451
mix 11450
##ef 11449
##uan 11448
bwl 11447
##plus 11446
##res 11445
core 11444
##ess 11443
tea 11442
5℃ 11441
hktvmall 11440
nhk 11439
##ate 11438
list 11437
##ese 11436
301 11435
feb 11434
4m 11433
inn 11432
ての 11431
nov 11430
159 11429
12345 11428
daniel 11427
##ci 11426
pass 11425
##bet 11424
##nk 11423
coffee 11422
202 11421
ssl 11420
airbnb 11419
##ute 11418
fbi 11417
woshipm 11416
skype 11415
ea 11414
cg 11413
sp 11412
##fc 11411
##www 11410
yes 11409
edge 11408
alt 11407
007 11406
##94 11405
fpga 11404
##ght 11403
##gs 11402
iso9001 11401
さい 11400
##ile 11399
##wood 11398
##uo 11397
image 11396
lin 11395
icon 11394
american 11393
##em 11392
1932 11391
set 11390
says 11389
##king 11388
##tive 11387
blogger 11386
##74 11385
なと 11384
256 11383
147 11382
##ox 11381
##zy 11380
##red 11379
##ium 11378
##lf 11377
nokia 11376
claire 11375
##リ 11374
##ding 11373
november 11372
lohas 11371
##500 11370
##tic 11369
##マ 11368
##cs 11367
##ある 11366
##che 11365
##ire 11364
##gy 11363
##ult 11362
db 11361
january 11360
win 11359
##カ 11358
166 11357
road 11356
ptt 11355
##ま 11354
##つ 11353
198 11352
##fa 11351
##mer 11350
anna 11349
pchome 11348
はい 11347
udn 11346
ef 11345
420 11344
##time 11343
##tte 11342
2030 11341
##ア 11340
g20 11339
white 11338
かかります 11337
1929 11336
308 11335
garden 11334
eleven 11333
di 11332
##おります 11331
chen 11330
309b 11329
777 11328
172 11327
young 11326
cosplay 11325
ちてない 11324
4500 11323
bat 11322
##123 11321
##tra 11320
##ては 11319
kindle 11318
npc 11317
steve 11316
etc 11315
##ern 11314
##｜ 11313
call 11312
xperia 11311
ces 11310
travel 11309
sk 11308
s7 11307
##ous 11306
1934 11305
##int 11304
みいたたけます 11303
183 11302
edu 11301
file 11300
cho 11299
qr 11298
##car 11297
##our 11296
186 11295
##ant 11294
##ｄ 11293
eric 11292
1914 11291
rends 11290
##jo 11289
##する 11288
mastercard 11287
##2000 11286
kb 11285
##min 11284
290 11283
##ino 11282
vista 11281
##ris 11280
##ud 11279
jack 11278
2400 11277
##set 11276
169 11275
pos 11274
1912 11273
##her 11272
##ou 11271
taipei 11270
しく 11269
205 11268
beta 11267
##ませんか 11266
232 11265
##fi 11264
express 11263
255 11262
body 11261
##ill 11260
aphojoy 11259
user 11258
december 11257
meiki 11256
##ick 11255
tweet 11254
richard 11253
##av 11252
##ᆫ 11251
iphone6 11250
##dd 11249
ちてすか 11248
views 11247
##mark 11246
321 11245
pd 11244
##００ 11243
times 11242
##▲ 11241
level 11240
##ash 11239
10g 11238
point 11237
5l 11236
##ome 11235
208 11234
koreanmall 11233
##ak 11232
george 11231
q2 11230
206 11229
wma 11228
tcp 11227
##200 11226
スタッフ 11225
full 11224
mlb 11223
##lle 11222
##watch 11221
tm 11220
run 11219
179 11218
911 11217
smith 11216
business 11215
##und 11214
1919 11213
color 11212
##tal 11211
222 11210
171 11209
##less 11208
moon 11207
4399 11206
##rl 11205
update 11204
pcb 11203
shop 11202
499 11201
157 11200
little 11199
なし 11198
end 11197
##mhz 11196
van 11195
dsp 11194
easy 11193
660 11192
##house 11191
##key 11190
history 11189
##ｏ 11188
oh 11187
##001 11186
##hy 11185
##web 11184
oem 11183
let 11182
was 11181
##2009 11180
##gg 11179
review 11178
##wan 11177
182 11176
##°c 11175
203 11174
uc 11173
title 11172
##val 11171
united 11170
233 11169
2021 11168
##ons 11167
doi 11166
trivago 11165
overdope 11164
sbs 11163
##ance 11162
##ち 11161
grand 11160
special 11159
573032185 11158
imf 11157
216 11156
wx17house 11155
##so 11154
##ーム 11153
audi 11152
##he 11151
london 11150
william 11149
##rp 11148
##ake 11147
science 11146
beach 11145
cfa 11144
amp 11143
ps4 11142
880 11141
##800 11140
##link 11139
##hp 11138
crm 11137
ferragamo 11136
bell 11135
make 11134
##eng 11133
195 11132
under 11131
zh 11130
photos 11129
2300 11128
##style 11127
##ント 11126
via 11125
176 11124
da 11123
##gi 11122
company 11121
i7 11120
##ray 11119
thomas 11118
370 11117
ufo 11116
i5 11115
##max 11114
plc 11113
ben 11112
back 11111
research 11110
8g 11109
173 11108
mike 11107
##pc 11106
##ッフ 11105
september 11104
189 11103
##ace 11102
vps 11101
february 11100
167 11099
pantos 11098
wp 11097
lisa 11096
1921 11095
★★ 11094
jquery 11093
night 11092
long 11091
offer 11090
##berg 11089
##news 11088
1911 11087
##いて 11086
ray 11085
fks 11084
wto 11083
せます 11082
over 11081
164 11080
340 11079
##all 11078
##rus 11077
1924 11076
##888 11075
##works 11074
blogtitle 11073
loftpermalink 11072
##→ 11071
187 11070
martin 11069
test 11068
ling 11067
km 11066
##め 11065
15000 11064
fda 11063
v3 11062
##ja 11061
##ロ 11060
ｗedding 11059
かある 11058
outlet 11057
family 11056
##ea 11055
をこ 11054
##top 11053
story 11052
##ness 11051
salvatore 11050
##lu 11049
204 11048
swift 11047
215 11046
room 11045
している 11044
oracle 11043
##ul 11042
1925 11041
sam 11040
b2c 11039
week 11038
pi 11037
rock 11036
##のは 11035
##ａ 11034
##けと 11033
##ean 11032
##300 11031
##gle 11030
cctv 11029
after 11028
chinese 11027
##back 11026
powered 11025
x2 11024
##tan 11023
1918 11022
##nes 11021
##イン 11020
canon 11019
only 11018
181 11017
##zi 11016
##las 11015
say 11014
##oe 11013
184 11012
##sd 11011
221 11010
##bot 11009
##world 11008
##zo 11007
sky 11006
made 11005
top100 11004
just 11003
1926 11002
pmi 11001
802 11000
234 10999
gap 10998
##vr 10997
177 10996
les 10995
174 10994
▲topoct 10993
ball 10992
vogue 10991
vi 10990
ing 10989
ofweek 10988
cos 10987
##list 10986
##ort 10985
▲topmay 10984
##なら 10983
##lon 10982
として 10981
last 10980
##tc 10979
##of 10978
##bus 10977
##gen 10976
real 10975
eva 10974
##コ 10973
a3 10972
nas 10971
##lie 10970
##ria 10969
##coin 10968
##bt 10967
▲topapr 10966
his 10965
212 10964
cat 10963
nata 10962
vive 10961
health 10960
⋯⋯ 10959
drive 10958
sir 10957
▲topmar 10956
du 10955
cup 10954
##カー 10953
##ook 10952
##よう 10951
##sy 10950
alex 10949
msg 10948
tour 10947
しました 10946
3ce 10945
##word 10944
193 10943
ebooks 10942
r8 10941
block 10940
318 10939
##より 10938
2200 10937
nice 10936
pvp 10935
207 10934
months 10933
1905 10932
rewards 10931
##ther 10930
1917 10929
0800 10928
##xi 10927
##チ 10926
##sc 10925
micro 10924
850 10923
gg 10922
blogfp 10921
op 10920
1922 10919
daily 10918
m1 10917
264 10916
true 10915
##bb 10914
ml 10913
##tar 10912
##のお 10911
##ky 10910
anthony 10909
196 10908
253 10907
##yo 10906
state 10905
218 10904
##ara 10903
##aa 10902
##rc 10901
##tz 10900
##ston 10899
より 10898
gear 10897
##eo 10896
##ade 10895
ge 10894
see 10893
1923 10892
##win 10891
##ura 10890
ss 10889
heart 10888
##den 10887
##ita 10886
down 10885
##sm 10884
el 10883
png 10882
2100 10881
610 10880
rakuten 10879
whatsapp 10878
bay 10877
dream 10876
add 10875
##use 10874
680 10873
311 10872
pad 10871
gucci 10870
mpv 10869
##ode 10868
##fo 10867
island 10866
▲topjun 10865
##▼ 10864
223 10863
jason 10862
214 10861
chicago 10860
##❤ 10859
しの 10858
##hone 10857
io 10856
##れる 10855
##ことか 10854
sogo 10853
be2 10852
##ology 10851
990 10850
cloud 10849
vcd 10848
##con 10847
2～3 10846
##ford 10845
##joy 10844
##kb 10843
##こさいます 10842
##rade 10841
but 10840
##ach 10839
docker 10838
##ful 10837
rfid 10836
ul 10835
##ase 10834
hit 10833
ford 10832
##star 10831
580 10830
##○ 10829
１１ 10828
a2 10827
sdk 10826
reading 10825
edited 10824
##are 10823
cmos 10822
##mc 10821
238 10820
siri 10819
light 10818
##ella 10817
##ため 10816
bloomberg 10815
##read 10814
pizza 10813
##ison 10812
jimmy 10811
##vm 10810
college 10809
node 10808
journal 10807
ba 10806
18k 10805
##play 10804
245 10803
##cer 10802
２０ 10801
magic 10800
##yu 10799
191 10798
jump 10797
288 10796
tt 10795
##ings 10794
asr 10793
##lia 10792
3200 10791
step5 10790
network 10789
##cd 10788
mc 10787
いします 10786
1234 10785
pixstyleme 10784
273 10783
##600 10782
2800 10781
money 10780
★★★★★ 10779
1280 10778
１２ 10777
430 10776
bl 10775
みの 10774
act 10773
##tus 10772
tokyo 10771
##rial 10770
##life 10769
emba 10768
##ae 10767
saas 10766
tcs 10765
##rk 10764
##wang 10763
summer 10762
##sp 10761
ko 10760
##ving 10759
390 10758
premium 10757
##その 10756
netflix 10755
##ヒ 10754
uk 10753
mt 10752
##lton 10751
right 10750
frank 10749
two 10748
209 10747
える 10746
##ple 10745
##cal 10744
021 10743
##んな 10742
##sen 10741
##ville 10740
hold 10739
nexus 10738
dd 10737
##ius 10736
てお 10735
##mah 10734
##なく 10733
tila 10732
zero 10731
820 10730
ce 10729
##tin 10728
resort 10727
##ws 10726
charles 10725
old 10724
p10 10723
5d 10722
report 10721
##360 10720
##ru 10719
##には 10718
bus 10717
vans 10716
lt 10715
##est 10714
pv 10713
##レ 10712
links 10711
rebecca 10710
##ツ 10709
##dm 10708
azure 10707
##365 10706
きな 10705
limited 10704
bit 10703
4gb 10702
##mon 10701
1910 10700
moto 10699
##eam 10698
213 10697
1913 10696
var 10695
eos 10694
なとの 10693
226 10692
blogspot 10691
された 10690
699 10689
e3 10688
dos 10687
dm 10686
fc 10685
##ments 10684
##ik 10683
##kw 10682
boy 10681
##bin 10680
##ata 10679
960 10678
er 10677
##せ 10676
219 10675
##vin 10674
##tu 10673
##ula 10672
194 10671
##∥ 10670
station 10669
##ろ 10668
##ature 10667
835 10666
files 10665
zara 10664
hdr 10663
top10 10662
nature 10661
950 10660
magazine 10659
s6 10658
marriott 10657
##シ 10656
avira 10655
case 10654
##っと 10653
tab 10652
##ran 10651
tony 10650
##home 10649
oculus 10648
im 10647
##ral 10646
jean 10645
saint 10644
cry 10643
307 10642
rosie 10641
##force 10640
##ini 10639
ice 10638
##bert 10637
のある 10636
##nder 10635
##mber 10634
pet 10633
2600 10632
##◆ 10631
plurk 10630
▲topdec 10629
##sis 10628
00kg 10627
▲topnov 10626
720 10625
##ence 10624
tim 10623
##ω 10622
##nc 10621
##ても 10620
##name 10619
log 10618
ips 10617
great 10616
ikea 10615
malaysia 10614
unix 10613
##イト 10612
3600 10611
##ncy 10610
##nie 10609
12000 10608
akb48 10607
##ye 10606
##oid 10605
404 10604
##chi 10603
##いた 10602
oa 10601
xuehai 10600
##1000 10599
##orm 10598
##rf 10597
275 10596
さん 10595
##ware 10594
##リー 10593
980 10592
ho 10591
##pro 10590
text 10589
##era 10588
560 10587
bob 10586
227 10585
##ub 10584
##2008 10583
8891 10582
scp 10581
avi 10580
##zen 10579
2022 10578
mi 10577
wu 10576
museum 10575
qvod 10574
apache 10573
lake 10572
jcb 10571
▲topaug 10570
★★★ 10569
ni 10568
##hr 10567
hill 10566
302 10565
ne 10564
weibo 10563
490 10562
ruby 10561
##ーシ 10560
##ヶ 10559
##row 10558
4d 10557
▲topjul 10556
iv 10555
##ish 10554
github 10553
306 10552
mate 10551
312 10550
##スト 10549
##lot 10548
##ane 10547
andrew 10546
のハイト 10545
##tina 10544
t1 10543
rf 10542
ed2k 10541
##vel 10540
##900 10539
way 10538
final 10537
りの 10536
ns 10535
5a 10534
705 10533
197 10532
##メ 10531
sweet 10530
bytes 10529
##ene 10528
▲topjan 10527
231 10526
##cker 10525
##2007 10524
##px 10523
100g 10522
topapp 10521
229 10520
helpapp 10519
rs 10518
low 10517
14k 10516
g4g 10515
care 10514
630 10513
ldquo 10512
あり 10511
##fork 10510
leave 10509
rm 10508
edition 10507
##gan 10506
##zon 10505
##qq 10504
▲topsep 10503
##google 10502
##ism 10501
gold 10500
224 10499
explorer 10498
##zer 10497
toyota 10496
category 10495
select 10494
visual 10493
##labels 10492
restaurant 10491
##md 10490
posts 10489
s1 10488
##ico 10487
もっと 10486
angelababy 10485
123456 10484
217 10483
sports 10482
s3 10481
mbc 10480
1915 10479
してくたさい 10478
shell 10477
x86 10476
candy 10475
##new 10474
kbs 10473
face 10472
xl 10471
470 10470
##here 10469
4a 10468
swissinfo 10467
v8 10466
▲topfeb 10465
dram 10464
##ual 10463
##vice 10462
3a 10461
##wer 10460
sport 10459
q1 10458
ios10 10457
public 10456
int 10455
card 10454
##ｃ 10453
ep 10452
au 10451
rt 10450
##れた 10449
1080 10448
bill 10447
##mll 10446
kim 10445
３０ 10444
460 10443
wan 10442
##uk 10441
##ミ 10440
x3 10439
298 10438
0t 10437
scott 10436
##ming 10435
239 10434
e5 10433
##3d 10432
h7n9 10431
worldcat 10430
brown 10429
##あります 10428
##vo 10427
##led 10426
##580 10425
##ax 10424
249 10423
410 10422
##ert 10421
paris 10420
##～6 10419
polo 10418
925 10417
##lr 10416
599 10415
##ナ 10414
capital 10413
##hing 10412
bank 10411
cv 10410
1g 10409
##chat 10408
##ｓ 10407
##たい 10406
adc 10405
##ule 10404
2m 10403
##ｅ 10402
digital 10401
hotmail 10400
268 10399
##pad 10398
870 10397
bbq 10396
quot 10395
##ring 10394
before 10393
wali 10392
##まて 10391
mcu 10390
2k 10389
2b 10388
という 10387
costco 10386
316 10385
north 10384
333 10383
switch 10382
##city 10381
##ｐ 10380
philips 10379
##mann 10378
management 10377
panasonic 10376
##cl 10375
##vd 10374
##ping 10373
##rge 10372
alice 10371
##lk 10370
##ましょう 10369
css3 10368
##ney 10367
vision 10366
alpha 10365
##ular 10364
##400 10363
##tter 10362
lz 10361
にお 10360
##ありません 10359
mode 10358
gre 10357
1916 10356
pci 10355
##tm 10354
237 10353
1～2 10352
##yan 10351
##そ 10350
について 10349
##let 10348
##キ 10347
work 10346
war 10345
coach 10344
ah 10343
mary 10342
##ᅵ 10341
huang 10340
##pt 10339
a8 10338
pt 10337
follow 10336
##berry 10335
1895 10334
##ew 10333
a5 10332
ghost 10331
##ション 10330
##wn 10329
##og 10328
south 10327
##code 10326
girls 10325
##rid 10324
action 10323
villa 10322
git 10321
r11 10320
table 10319
games 10318
##cket 10317
error 10316
##anonymoussaid 10315
##ag 10314
here 10313
##ame 10312
##gc 10311
qa 10310
##■ 10309
##lis 10308
gmp 10307
##gin 10306
vmalife 10305
##cher 10304
yu 10303
wedding 10302
##tis 10301
demo 10300
dragon 10299
530 10298
soho 10297
social 10296
bye 10295
##rant 10294
river 10293
orz 10292
acer 10291
325 10290
##↑ 10289
##ース 10288
##ats 10287
261 10286
del 10285
##ven 10284
440 10283
ups 10282
##ように 10281
##ター 10280
305 10279
value 10278
macd 10277
yougou 10276
##dn 10275
661 10274
##ano 10273
ll 10272
##urt 10271
##rent 10270
continue 10269
script 10268
##wen 10267
##ect 10266
paper 10265
263 10264
319 10263
shift 10262
##chel 10261
##フト 10260
##cat 10259
258 10258
x5 10257
fox 10256
243 10255
##さん 10254
car 10253
aaa 10252
##blog 10251
loading 10250
##yn 10249
##tp 10248
kuso 10247
799 10246
si 10245
sns 10244
イカせるテンマ 10243
ヒンクテンマ3 10242
rmb 10241
vdc 10240
forest 10239
central 10238
prime 10237
help 10236
ultra 10235
##rmb 10234
##ような 10233
241 10232
square 10231
688 10230
##しい 10229
のないフロクに 10228
##field 10227
##reen 10226
##ors 10225
##ju 10224
c1 10223
start 10222
510 10221
##air 10220
##map 10219
cdn 10218
##wo 10217
cba 10216
stephen 10215
m8 10214
100km 10213
##get 10212
opera 10211
##base 10210
##ood 10209
vsa 10208
com™ 10207
##aw 10206
##ail 10205
251 10204
なのて 10203
count 10202
t2 10201
##ᅡ 10200
##een 10199
2700 10198
hop 10197
##gp 10196
vsc 10195
tree 10194
##eg 10193
##ose 10192
816 10191
285 10190
##ories 10189
##shop 10188
alphago 10187
v4 10186
1909 10185
simon 10184
##ᆼ 10183
fluke62max 10182
zip 10181
スホンサー 10180
##sta 10179
louis 10178
cr 10177
bas 10176
##～10 10175
bc 10174
##yer 10173
hadoop 10172
##ube 10171
##wi 10170
1906 10169
0755 10168
hola 10167
##low 10166
place 10165
centre 10164
5v 10163
d3 10162
##fer 10161
252 10160
##750 10159
##media 10158
281 10157
540 10156
0l 10155
exchange 10154
262 10153
series 10152
##ハー 10151
##san 10150
eb 10149
##bank 10148
##ｋ 10147
q3 10146
##nge 10145
##mail 10144
take 10143
##lp 10142
259 10141
1888 10140
client 10139
east 10138
cache 10137
event 10136
vincent 10135
##ールを 10134
きを 10133
##nse 10132
sui 10131
855 10130
adchoice 10129
##и 10128
##stry 10127
##なたの 10126
246 10125
##zone 10124
ga 10123
apps 10122
sea 10121
##ab 10120
248 10119
cisco 10118
##タ 10117
##rner 10116
kymco 10115
##care 10114
dha 10113
##pu 10112
##yi 10111
minkoff 10110
royal 10109
p1 10108
への 10107
annie 10106
269 10105
collection 10104
kpi 10103
playstation 10102
257 10101
になります 10100
866 10099
bh 10098
##bar 10097
queen 10096
505 10095
radio 10094
1904 10093
andy 10092
armani 10091
##xy 10090
manager 10089
iherb 10088
##ery 10087
##share 10086
spring 10085
raid 10084
johnson 10083
1908 10082
##ob 10081
volvo 10080
hall 10079
##ball 10078
v6 10077
our 10076
taylor 10075
##hk 10074
bi 10073
242 10072
##cp 10071
kate 10070
bo 10069
water 10068
technology 10067
##rie 10066
サイトは 10065
277 10064
##ona 10063
##sl 10062
hpv 10061
303 10060
gtx 10059
hip 10058
rdquo 10057
jayz 10056
stone 10055
##lex 10054
##rum 10053
namespace 10052
##やり 10051
620 10050
##ale 10049
##atic 10048
des 10047
##erson 10046
##ql 10045
##ves 10044
##type 10043
enter 10042
##この 10041
##てきます 10040
d2 10039
##168 10038
##mix 10037
##bian 10036
との 10035
a9 10034
jj 10033
ky 10032
##lc 10031
access 10030
movie 10029
##hc 10028
リストに 10027
tower 10026
##ration 10025
##mit 10024
ます 10023
##nch 10022
ua 10021
tel 10020
prefix 10019
##o2 10018
1907 10017
##point 10016
1901 10015
ott 10014
～10 10013
##http 10012
##ury 10011
baidu 10010
##ink 10009
member 10008
##logy 10007
bigbang 10006
nownews 10005
##js 10004
##shot 10003
##tb 10002
##こと 10001
247 10000
eba 9999
##tics 9998
##lus 9997
ける 9996
v5 9995
spark 9994
##ama 9993
there 9992
##ions 9991
god 9990
##lls 9989
##down 9988
hiv 9987
##ress 9986
burberry 9985
day2 9984
##kv 9983
◆◆ 9982
jeff 9981
related 9980
film 9979
edit 9978
joseph 9977
283 9976
##ark 9975
cx 9974
32gb 9973
order 9972
g9 9971
30000 9970
##ans 9969
##tty 9968
s5 9967
##bee 9966
かあります 9965
thread 9964
xr 9963
buy 9962
sh 9961
005 9960
land 9959
spotify 9958
mx 9957
##ari 9956
276 9955
##verse 9954
×email 9953
sf 9952
why 9951
##ことて 9950
244 9949
7headlines 9948
nego 9947
sunny 9946
dom 9945
exo 9944
401 9943
666 9942
positioning 9941
fit 9940
rgb 9939
##tton 9938
278 9937
kiss 9936
alexa 9935
adam 9934
lp 9933
みリストを 9932
##ｇ 9931
mp 9930
##ties 9929
##llow 9928
amy 9927
##du 9926
np 9925
002 9924
institute 9923
271 9922
##rth 9921
##lar 9920
2345 9919
590 9918
##des 9917
sidebar 9916
１５ 9915
imax 9914
site 9913
##cky 9912
##kit 9911
##ime 9910
##009 9909
season 9908
323 9907
##fun 9906
##ンター 9905
##ひ 9904
gogoro 9903
a7 9902
pu 9901
lily 9900
fire 9899
twd600 9898
##ッセーシを 9897
いて 9896
##vis 9895
30ml 9894
##cture 9893
##をお 9892
information 9891
##オ 9890
close 9889
friday 9888
##くれる 9887
yi 9886
nick 9885
てすか 9884
##tta 9883
##tel 9882
6500 9881
##lock 9880
cbd 9879
economy 9878
254 9877
かお 9876
267 9875
tinker 9874
double 9873
375 9872
8gb 9871
voice 9870
##app 9869
oops 9868
channel 9867
today 9866
985 9865
##right 9864
raw 9863
xyz 9862
##＋ 9861
jim 9860
edm 9859
##cent 9858
7500 9857
supreme 9856
814 9855
ds 9854
##its 9853
##asia 9852
dropbox 9851
##てすか 9850
##tti 9849
books 9848
272 9847
100ml 9846
##tle 9845
##ller 9844
##ken 9843
##more 9842
##boy 9841
sex 9840
309 9839
##dom 9838
t3 9837
##ider 9836
##なります 9835
##unch 9834
1903 9833
810 9832
feel 9831
5500 9830
##かった 9829
##put 9828
により 9827
s2 9826
mo 9825
##gh 9824
men 9823
ka 9822
amoled 9821
div 9820
##tr 9819
##n1 9818
port 9817
howard 9816
##tags 9815
ken 9814
dnf 9813
##nus 9812
adsense 9811
##а 9810
ide 9809
##へ 9808
buff 9807
thunder 9806
##town 9805
##ique 9804
has 9803
##body 9802
auto 9801
pin 9800
##erry 9799
tee 9798
てした 9797
295 9796
number 9795
##the 9794
##013 9793
object 9792
psp 9791
cool 9790
udnbkk 9789
16gb 9788
##mic 9787
miui 9786
##tro 9785
most 9784
r2 9783
##alk 9782
##nity 9781
1880 9780
±0 9779
##いました 9778
428 9777
s4 9776
law 9775
version 9774
##oa 9773
n1 9772
sgs 9771
docomo 9770
##tf 9769
##ack 9768
henry 9767
fc2 9766
##ded 9765
##sco 9764
##014 9763
##rite 9762
286 9761
0mm 9760
linkedin 9759
##ada 9758
##now 9757
wii 9756
##ndy 9755
ucbug 9754
##◎ 9753
sputniknews 9752
legalminer 9751
##ika 9750
##xp 9749
2gb 9748
##bu 9747
q10 9746
oo 9745
b6 9744
come 9743
##rman 9742
cheese 9741
ming 9740
maker 9739
##gm 9738
nikon 9737
##fig 9736
ppi 9735
kelly 9734
##ります 9733
jchere 9732
てきます 9731
ted 9730
md 9729
003 9728
fgo 9727
tech 9726
##tto 9725
dan 9724
soc 9723
##gl 9722
##len 9721
hair 9720
earth 9719
640 9718
521 9717
img 9716
##pper 9715
##a1 9714
##てきる 9713
##ロク 9712
acca 9711
##ition 9710
##ference 9709
suite 9708
##ig 9707
outlook 9706
##mond 9705
##cation 9704
398 9703
##pr 9702
279 9701
101vip 9700
358 9699
##999 9698
282 9697
64gb 9696
3800 9695
345 9694
airport 9693
##over 9692
284 9691
##おり 9690
jones 9689
##ith 9688
lab 9687
##su 9686
##いるのて 9685
co2 9684
town 9683
piece 9682
##llo 9681
no1 9680
vmware 9679
24h 9678
##qi 9677
focus 9676
reader 9675
##admin 9674
##ora 9673
tb 9672
false 9671
##log 9670
1898 9669
know 9668
lan 9667
838 9666
##ces 9665
f4 9664
##ume 9663
motel 9662
stop 9661
##oper 9660
na 9659
flickr 9658
netcomponents 9657
##af 9656
##─ 9655
pose 9654
williams 9653
local 9652
##ound 9651
##cg 9650
##site 9649
##iko 9648
いお 9647
274 9646
5m 9645
gsm 9644
con 9643
##ath 9642
1902 9641
friends 9640
##hip 9639
cell 9638
317 9637
##rey 9636
780 9635
cream 9634
##cks 9633
012 9632
##dp 9631
facebooktwitterpinterestgoogle 9630
sso 9629
324 9628
shtml 9627
song 9626
swiss 9625
##mw 9624
##キンク 9623
lumia 9622
xdd 9621
string 9620
tiffany 9619
522 9618
marc 9617
られた 9616
insee 9615
russell 9614
sc 9613
dell 9612
##ations 9611
ｏｋ 9610
camera 9609
289 9608
##vs 9607
##flow 9606
##late 9605
classic 9604
287 9603
##nter 9602
stay 9601
g1 9600
mtv 9599
512 9598
##ever 9597
##lab 9596
##nger 9595
qe 9594
sata 9593
ryan 9592
d1 9591
50ml 9590
cms 9589
##cing 9588
su 9587
292 9586
3300 9585
editor 9584
296 9583
##nap 9582
security 9581
sunday 9580
association 9579
##ens 9578
##700 9577
##bra 9576
acg 9575
##かり 9574
sofascore 9573
とは 9572
mkv 9571
##ign 9570
jonathan 9569
gary 9568
build 9567
labels 9566
##oto 9565
tesla 9564
moba 9563
qi 9562
gohappy 9561
general 9560
ajax 9559
1024 9558
##かる 9557
サイト 9556
society 9555
##test 9554
##urs 9553
wps 9552
fedora 9551
##ich 9550
mozilla 9549
328 9548
##480 9547
##dr 9546
usa 9545
urn 9544
##lina 9543
##ｒ 9542
grace 9541
##die 9540
##try 9539
##ader 9538
1250 9537
##なり 9536
elle 9535
570 9534
##chen 9533
##ᆯ 9532
price 9531
##ten 9530
uhz 9529
##ough 9528
eq 9527
##hen 9526
states 9525
push 9524
session 9523
balance 9522
wow 9521
506 9520
##cus 9519
##py 9518
when 9517
##ward 9516
##ep 9515
34e 9514
wong 9513
library 9512
prada 9511
##サイト 9510
##cle 9509
running 9508
##ree 9507
313 9506
ck 9505
date 9504
q4 9503
##ctive 9502
##ool 9501
##＞ 9500
mk 9499
##ira 9498
##163 9497
388 9496
die 9495
secret 9494
rq 9493
dota 9492
buffet 9491
は１ヶ 9490
e6 9489
##ez 9488
pan 9487
368 9486
ha 9485
##card 9484
##cha 9483
2a 9482
##さ 9481
alan 9480
day3 9479
eye 9478
f3 9477
##end 9476
france 9475
keep 9474
adi 9473
rna 9472
tvbs 9471
##ala 9470
solo 9469
nova 9468
##え 9467
##tail 9466
##ょう 9465
support 9464
##ries 9463
##なる 9462
##ved 9461
base 9460
copy 9459
iis 9458
fps 9457
##ways 9456
hero 9455
hgih 9454
profile 9453
fish 9452
mu 9451
ssh 9450
entertainment 9449
chang 9448
##wd 9447
click 9446
cake 9445
##ond 9444
pre 9443
##tom 9442
kic 9441
pixel 9440
##ov 9439
##fl 9438
product 9437
6a 9436
##pd 9435
dear 9434
##gate 9433
es 9432
yumi 9431
audio 9430
##² 9429
##sky 9428
echo 9427
bin 9426
where 9425
##ture 9424
329 9423
##ape 9422
find 9421
sap 9420
isis 9419
##なと 9418
nand 9417
##101 9416
##load 9415
##ream 9414
band 9413
a6 9412
525 9411
never 9410
##post 9409
festival 9408
50cm 9407
##we 9406
555 9405
guide 9404
314 9403
zenfone 9402
##ike 9401
335 9400
gd 9399
forum 9398
jessica 9397
strong 9396
alexander 9395
##ould 9394
software 9393
allen 9392
##ious 9391
program 9390
360° 9389
else 9388
lohasthree 9387
##gar 9386
することかてきます 9385
please 9384
##れます 9383
rc 9382
##ggle 9381
##ric 9380
bim 9379
50000 9378
##own 9377
eclipse 9376
355 9375
brian 9374
3ds 9373
##side 9372
061 9371
361 9370
##other 9369
##ける 9368
##tech 9367
##ator 9366
485 9365
engine 9364
##ged 9363
##ｔ 9362
plaza 9361
##fit 9360
cia 9359
ngo 9358
westbrook 9357
shi 9356
tbs 9355
50mm 9354
##みませんか 9353
sci 9352
291 9351
reuters 9350
##ily 9349
contextlink 9348
##hn 9347
af 9346
##cil 9345
bridge 9344
very 9343
##cel 9342
1890 9341
cambridge 9340
##ize 9339
15g 9338
##aid 9337
##data 9336
790 9335
frm 9334
##head 9333
award 9332
butler 9331
##sun 9330
meta 9329
##mar 9328
america 9327
ps3 9326
puma 9325
pmid 9324
##すか 9323
lc 9322
670 9321
kitchen 9320
##lic 9319
オーフン5 9318
きなしソフトサーヒス 9317
そして 9316
day1 9315
future 9314
★★★★ 9313
##text 9312
##page 9311
##rris 9310
pm1 9309
##ket 9308
fans 9307
##っています 9306
1001 9305
christian 9304
bot 9303
kids 9302
trackback 9301
##hai 9300
c3 9299
display 9298
##hl 9297
n2 9296
1896 9295
idea 9294
さんも 9293
##sent 9292
airmail 9291
##ug 9290
##men 9289
pwm 9288
けます 9287
028 9286
##lution 9285
369 9284
852 9283
awards 9282
schemas 9281
354 9280
asics 9279
wikipedia 9278
font 9277
##tional 9276
##vy 9275
c2 9274
293 9273
##れている 9272
##dget 9271
##ein 9270
っている 9269
contact 9268
pepper 9267
スキル 9266
339 9265
##～5 9264
294 9263
##uel 9262
##ument 9261
730 9260
##hang 9259
みてす 9258
q5 9257
##sue 9256
rain 9255
##ndi 9254
wei 9253
swatch 9252
##cept 9251
わせ 9250
331 9249
popular 9248
##ste 9247
##tag 9246
p2 9245
501 9244
trc 9243
1899 9242
##west 9241
##live 9240
justin 9239
honda 9238
ping 9237
messenger 9236
##rap 9235
v9 9234
543 9233
##とは 9232
unity 9231
appqq 9230
はすへて 9229
025 9228
leo 9227
##tone 9226
##テ 9225
##ass 9224
uniqlo 9223
##010 9222
502 9221
her 9220
jane 9219
memory 9218
moneydj 9217
##tical 9216
human 9215
12306 9214
していると 9213
##m2 9212
coc 9211
miacare 9210
##mn 9209
tmt 9208
##core 9207
vim 9206
kk 9205
##may 9204
fan 9203
target 9202
use 9201
too 9200
338 9199
435 9198
2050 9197
867 9196
737 9195
fast 9194
##2c 9193
services 9192
##ope 9191
omega 9190
energy 9189
##わ 9188
pinkoi 9187
1a 9186
##なから 9185
##rain 9184
jackson 9183
##ement 9182
##シャンルの 9181
374 9180
366 9179
そんな 9178
p9 9177
rd 9176
##ᆨ 9175
1111 9174
##tier 9173
##vic 9172
zone 9171
##│ 9170
385 9169
690 9168
dl 9167
isofix 9166
cpa 9165
m4 9164
322 9163
kimi 9162
めて 9161
davis 9160
##lay 9159
lulu 9158
##uck 9157
050 9156
weeks 9155
qs 9154
##hop 9153
920 9152
##ｎ 9151
ae 9150
##ear 9149
～5 9148
eia 9147
405 9146
##fly 9145
korea 9144
jpeg 9143
boost 9142
##ship 9141
small 9140
##リア 9139
1860 9138
eur 9137
297 9136
425 9135
valley 9134
##iel 9133
simple 9132
##ude 9131
rn 9130
k2 9129
##ena 9128
されます 9127
non 9126
patrick 9125
しているから 9124
##ナー 9123
feed 9122
5757 9121
30g 9120
process 9119
well 9118
qqmei 9117
##thing 9116
they 9115
aws 9114
lu 9113
pink 9112
##ters 9111
##kin 9110
または 9109
board 9108
##vertisement 9107
wine 9106
##ien 9105
unicode 9104
##dge 9103
r1 9102
359 9101
##tant 9100
いを 9099
##twitter 9098
##3c 9097
cool1 9096
される 9095
##れて 9094
##ｌ 9093
isp 9092
##012 9091
standard 9090
45㎡2 9089
402 9088
##150 9087
matt 9086
##fu 9085
326 9084
##iner 9083
googlemsn 9082
pixnetfacebookyahoo 9081
##ラン 9080
x7 9079
886 9078
##uce 9077
メーカー 9076
sao 9075
##ev 9074
##きました 9073
##file 9072
9678 9071
403 9070
xddd 9069
shirt 9068
6l 9067
##rio 9066
##hat 9065
3mm 9064
givenchy 9063
ya 9062
bang 9061
##lio 9060
monday 9059
crystal 9058
ロクイン 9057
##abc 9056
336 9055
head 9054
890 9053
ubuntuforumwikilinuxpastechat 9052
##vc 9051
##～20 9050
##rity 9049
cnc 9048
7866 9047
ipv6 9046
null 9045
1897 9044
##ost 9043
yang 9042
imsean 9041
tiger 9040
##fet 9039
##ンス 9038
352 9037
##＝ 9036
dji 9035
327 9034
ji 9033
maria 9032
##come 9031
##んて 9030
foundation 9029
3100 9028
##beth 9027
##なった 9026
1m 9025
601 9024
active 9023
##aft 9022
##don 9021
3p 9020
sr 9019
349 9018
emma 9017
##khz 9016
living 9015
415 9014
353 9013
1889 9012
341 9011
709 9010
457 9009
sas 9008
x6 9007
##face 9006
pptv 9005
x4 9004
##mate 9003
han 9002
sophie 9001
##jing 9000
337 8999
fifa 8998
##mand 8997
other 8996
sale 8995
inwedding 8994
##gn 8993
てきちゃいます 8992
##mmy 8991
##pmlast 8990
bad 8989
nana 8988
nbc 8987
してみてくたさいね 8986
なとはお 8985
##wu 8984
##かあります 8983
##あ 8982
note7 8981
single 8980
##340 8979
せからこ 8978
してくたさい♪この 8977
しにはとんとんワークケートを 8976
するとあなたにもっとマッチした 8975
ならワークケートへ 8974
もみつかっちゃうかも 8973
ワークケートの 8972
##bel 8971
window 8970
##dio 8969
##ht 8968
union 8967
age 8966
382 8965
１４ 8964
##ivity 8963
##ｙ 8962
コメント 8961
domain 8960
neo 8959
##isa 8958
##lter 8957
5k 8956
f5 8955
steven 8954
##cts 8953
powerpoint 8952
tft 8951
self 8950
g2 8949
ft 8948
##テル 8947
zol 8946
##act 8945
mwc 8944
381 8943
343 8942
もう 8941
nbapop 8940
408 8939
てある 8938
eds 8937
ace 8936
##room 8935
previous 8934
author 8933
tomtom 8932
il 8931
##ets 8930
hu 8929
financial 8928
☆☆☆ 8927
っています 8926
bp 8925
5t 8924
chi 8923
1gb 8922
##hg 8921
fairmont 8920
cross 8919
008 8918
gay 8917
h2 8916
function 8915
##けて 8914
356 8913
also 8912
1b 8911
625 8910
##ータ 8909
##raph 8908
1894 8907
3～5 8906
##ils 8905
i3 8904
334 8903
avenue 8902
##host 8901
による 8900
##bon 8899
##tsu 8898
message 8897
navigation 8896
50g 8895
fintech 8894
h6 8893
##ことを 8892
8cm 8891
##ject 8890
##vas 8889
##firm 8888
credit 8887
##wf 8886
xxxx 8885
form 8884
##nor 8883
##space 8882
huawei 8881
plan 8880
json 8879
sbl 8878
##dc 8877
machine 8876
921 8875
392 8874
wish 8873
##120 8872
##sol 8871
windows7 8870
edward 8869
##ために 8868
development 8867
washington 8866
##nsis 8865
lo 8864
818 8863
##sio 8862
##ym 8861
##bor 8860
planet 8859
##～8 8858
##wt 8857
ieee 8856
gpa 8855
##めて 8854
camp 8853
ann 8852
gm 8851
##tw 8850
##oka 8849
connect 8848
##rss 8847
##work 8846
##atus 8845
wall 8844
chicken 8843
soul 8842
2mm 8841
##times 8840
fa 8839
##ather 8838
##cord 8837
009 8836
##eep 8835
hitachi 8834
gui 8833
harry 8832
##pan 8831
e1 8830
disney 8829
##press 8828
##ーション 8827
wind 8826
386 8825
frigidaire 8824
##tl 8823
liu 8822
hsu 8821
332 8820
basic 8819
von 8818
ev 8817
いた 8816
てきる 8815
スホンサーサイト 8814
learning 8813
##ull 8812
expedia 8811
archives 8810
change 8809
##wei 8808
santa 8807
cut 8806
ins 8805
6gb 8804
turbo 8803
brand 8802
cf1 8801
508 8800
004 8799
return 8798
747 8797
##rip 8796
h1 8795
##nis 8794
##をこ 8793
128gb 8792
##にお 8791
3t 8790
application 8789
しており 8788
emc 8787
rx 8786
##oon 8785
384 8784
quick 8783
412 8782
15058 8781
wilson 8780
wing 8779
chapter 8778
##bug 8777
beyond 8776
##cms 8775
##dar 8774
##oh 8773
zoom 8772
e2 8771
trip 8770
sb 8769
##nba 8768
rcep 8767
342 8766
aspx 8765
ci 8764
080 8763
gc 8762
gnu 8761
める 8760
##count 8759
advanced 8758
dance 8757
dv 8756
##url 8755
##ging 8754
367 8753
8591 8752
am09 8751
shadow 8750
battle 8749
346 8748
##ｉ 8747
##cia 8746
##という 8745
emily 8744
##のてす 8743
##tation 8742
host 8741
ff 8740
techorz 8739
sars 8738
##mini 8737
##mporary 8736
##ering 8735
nc 8734
4200 8733
798 8732
##next 8731
cma 8730
##mbps 8729
##gas 8728
##ift 8727
##dot 8726
##ィ 8725
455 8724
##～17 8723
amana 8722
##りの 8721
426 8720
##ros 8719
ir 8718
00㎡1 8717
##eet 8716
##ible 8715
##↓ 8714
710 8713
ˋ▽ˊ 8712
##aka 8711
dcs 8710
iq 8709
##ｖ 8708
l1 8707
##lor 8706
maggie 8705
##011 8704
##iu 8703
588 8702
##～1 8701
830 8700
##gt 8699
1tb 8698
articles 8697
create 8696
##burg 8695
##iki 8694
database 8693
fantasy 8692
##rex 8691
##cam 8690
dlc 8689
dean 8688
##you 8687
hard 8686
path 8685
gaming 8684
victoria 8683
maps 8682
cb 8681
##lee 8680
##itor 8679
overchicstoretvhome 8678
systems 8677
##xt 8676
416 8675
p3 8674
sarah 8673
760 8672
##nan 8671
407 8670
486 8669
x9 8668
install 8667
second 8666
626 8665
##ann 8664
##ph 8663
##rcle 8662
##nic 8661
860 8660
##nar 8659
ec 8658
##とう 8657
768 8656
metro 8655
chocolate 8654
##rian 8653
～4 8652
##table 8651
##しています 8650
skin 8649
##sn 8648
395 8647
mountain 8646
##0mm 8645
inparadise 8644
6m 8643
7x24 8642
ib 8641
4800 8640
##jia 8639
eeworld 8638
creative 8637
g5 8636
g3 8635
357 8634
parker 8633
ecfa 8632
village 8631
からの 8630
18000 8629
sylvia 8628
サーヒス 8627
hbl 8626
##ques 8625
##onsored 8624
##x2 8623
##きます 8622
##v4 8621
##tein 8620
ie6 8619
383 8618
##stack 8617
389 8616
ver 8615
##ads 8614
##baby 8613
sound 8612
bbe 8611
##110 8610
##lone 8609
##uid 8608
ads 8607
022 8606
gundam 8605
351 8604
thinkpad 8603
006 8602
scrum 8601
match 8600
##ave 8599
mems 8598
##470 8597
##oy 8596
##なりました 8595
##talk 8594
glass 8593
lamigo 8592
span 8591
##eme 8590
job 8589
##a5 8588
jay 8587
wade 8586
kde 8585
498 8584
##lace 8583
ocean 8582
tvg 8581
##covery 8580
##r3 8579
##ners 8578
##rea 8577
junior 8576
think 8575
##aine 8574
cover 8573
##ision 8572
##sia 8571
↓↓ 8570
##bow 8569
msi 8568
413 8567
458 8566
406 8565
##love 8564
711 8563
801 8562
soft 8561
z2 8560
##pl 8559
456 8558
1840 8557
mobil 8556
mind 8555
##uy 8554
427 8553
nginx 8552
##oi 8551
めた 8550
##rr 8549
6221 8548
##mple 8547
##sson 8546
##ーシてす 8545
371 8544
##nts 8543
91tv 8542
comhd 8541
crv3000 8540
##uard 8539
1868 8538
397 8537
deep 8536
lost 8535
field 8534
gallery 8533
##bia 8532
rate 8531
spf 8530
redis 8529
traction 8528
930 8527
icloud 8526
011 8525
なら 8524
fe 8523
jose 8522
372 8521
##tory 8520
into 8519
sohu 8518
fx 8517
899 8516
379 8515
kicstart2 8514
##hia 8513
すく 8512
##～3 8511
##sit 8510
ra 8509
２４ 8508
##walk 8507
##xure 8506
500g 8505
##pact 8504
pacific 8503
xa 8502
natural 8501
carlo 8500
##250 8499
##walker 8498
1850 8497
##can 8496
cto 8495
gigi 8494
516 8493
##サー 8492
pen 8491
##hoo 8490
ob 8489
matlab 8488
##ｂ 8487
##yy 8486
13913459 8485
##iti 8484
mango 8483
##bbs 8482
sense 8481
c5 8480
oxford 8479
##ニア 8478
walker 8477
jennifer 8476
##ola 8475
course 8474
##bre 8473
701 8472
##pus 8471
##rder 8470
lucky 8469
075 8468
##ぁ 8467
ivy 8466
なお 8465
##nia 8464
sotheby 8463
side 8462
##ugh 8461
joy 8460
##orage 8459
##ush 8458
##bat 8457
##dt 8456
364 8455
r9 8454
##2d 8453
##gio 8452
511 8451
country 8450
wear 8449
##lax 8448
##～7 8447
##moon 8446
393 8445
seven 8444
study 8443
411 8442
348 8441
lonzo 8440
8k 8439
##ェ 8438
evolution 8437
##イフ 8436
##kk 8435
gs 8434
kd 8433
##レス 8432
arduino 8431
344 8430
b12 8429
##lux 8428
arpg 8427
##rdon 8426
cook 8425
##x5 8424
dark 8423
five 8422
##als 8421
##ida 8420
とても 8419
sign 8418
362 8417
##ちの 8416
something 8415
20mm 8414
##nda 8413
387 8412
##posted 8411
fresh 8410
tf 8409
1870 8408
422 8407
cam 8406
##mine 8405
##skip 8404
##form 8403
##ssion 8402
education 8401
394 8400
##tee 8399
dyson 8398
stage 8397
##jie 8396
want 8395
##night 8394
epson 8393
pack 8392
あります 8391
##ppy 8390
テリヘル 8389
##█ 8388
wd 8387
##eh 8386
##rence 8385
left 8384
##lvin 8383
golden 8382
mhz 8381
discovery 8380
##trix 8379
##n2 8378
loft 8377
##uch 8376
##dra 8375
##sse 8374
speed 8373
～1 8372
1mdb 8371
sorry 8370
welcome 8369
##urn 8368
wave 8367
gaga 8366
##lmer 8365
teddy 8364
##160 8363
トラックハック 8362
せよ 8361
611 8360
##f2016 8359
378 8358
rp 8357
##sha 8356
rar 8355
##あなたに 8354
##きた 8353
840 8352
holiday 8351
##ュー 8350
373 8349
074 8348
##vg 8347
##nos 8346
##rail 8345
gartner 8344
gi 8343
6p 8342
##dium 8341
kit 8340
488 8339
b3 8338
eco 8337
##ろう 8336
20g 8335
sean 8334
##stone 8333
autocad 8332
nu 8331
##np 8330
f16 8329
write 8328
029 8327
m5 8326
##ias 8325
images 8324
atp 8323
##dk 8322
fsm 8321
504 8320
1350 8319
ve 8318
52kb 8317
##xxx 8316
##のに 8315
##cake 8314
414 8313
unit 8312
lim 8311
ru 8310
1v 8309
##ification 8308
published 8307
angela 8306
16g 8305
analytics 8304
ak 8303
##ｑ 8302
##nel 8301
gmt 8300
##icon 8299
again 8298
##₂ 8297
##bby 8296
ios11 8295
445 8294
かこさいます 8293
waze 8292
いてす 8291
##ハ 8290
9985 8289
##ust 8288
##ティー 8287
framework 8286
##007 8285
iptv 8284
delete 8283
52sykb 8282
cl 8281
wwdc 8280
027 8279
30cm 8278
##fw 8277
##ての 8276
1389 8275
##xon 8274
brandt 8273
##ses 8272
##dragon 8271
tc 8270
vetements 8269
anne 8268
monte 8267
modern 8266
official 8265
##へて 8264
##ere 8263
##nne 8262
##oud 8261
もちろん 8260
５０ 8259
etnews 8258
##a2 8257
##graphy 8256
421 8255
863 8254
##ちゃん 8253
444 8252
##rtex 8251
##てお 8250
l2 8249
##gma 8248
mount 8247
ccd 8246
たと 8245
archive 8244
morning 8243
tan 8242
ddos 8241
e7 8240
##ホ 8239
day4 8238
##ウ 8237
gis 8236
453 8235
its 8234
495 8233
factory 8232
bruce 8231
pg 8230
##ito 8229
ってくたさい 8228
guest 8227
cdma 8226
##lling 8225
536 8224
n3 8223
しかし 8222
3～4 8221
mega 8220
eyes 8219
ro 8218
１３ 8217
women 8216
dac 8215
church 8214
##jun 8213
singapore 8212
##facebook 8211
6991 8210
starbucks 8209
##tos 8208
##stin 8207
##shine 8206
zen 8205
##mu 8204
tina 8203
20℃ 8202
1893 8201
##たけて 8200
503 8199
465 8198
request 8197
##gence 8196
qt 8195
##っ 8194
1886 8193
347 8192
363 8191
q7 8190
##zzi 8189
diary 8188
##tore 8187
409 8186
##ead 8185
468 8184
cst 8183
##osa 8182
canada 8181
agent 8180
va 8179
##jiang 8178
##ちは 8177
##ーク 8176
##lam 8175
sg 8174
##nix 8173
##sday 8172
##よって 8171
g6 8170
##master 8169
bing 8168
##zl 8167
charlie 8166
１６ 8165
8mm 8164
nb40 8163
##ーン 8162
thai 8161
##ルフ 8160
ln284ct 8159
##itz 8158
##2f 8157
bonnie 8156
##food 8155
##lent 8154
originals 8153
##stro 8152
##lts 8151
418 8150
∟∣ 8149
##bscribe 8148
children 8147
ntd 8146
yesstyle 8145
##かも 8144
hmv 8143
##tment 8142
d5 8141
2cm 8140
arts 8139
sms 8138
##pn 8137
##я 8136
##いい 8135
topios9 8134
539 8133
lifestyle 8132
virtual 8131
##ague 8130
xz 8129
##deo 8128
muji 8127
024 8126
unt 8125
##nnis 8124
##ᅩ 8123
faq1 8122
1884 8121
396 8120
##ette 8119
fly 8118
64㎡ 8117
はしめまして 8116
441 8115
curry 8114
##pop 8113
のこ 8112
release 8111
##← 8110
##◆◆ 8109
##cast 8108
073 8107
ありな 8106
500ml 8105
##ews 8104
5c 8103
##stle 8102
ios7 8101
##ima 8100
787 8099
dog 8098
lenovo 8097
##r4 8096
roger 8095
013 8094
cbs 8093
vornado 8092
100m 8091
417 8090
##desk 8089
##クok 8088
##ald 8087
1867 8086
9595 8085
2900 8084
##van 8083
oil 8082
##ｘ 8081
some 8080
break 8079
common 8078
##jy 8077
##lines 8076
g7 8075
twice 8074
419 8073
ella 8072
nano 8071
belle 8070
にこ 8069
##mes 8068
##self 8067
##note 8066
jb 8065
##ことかてきます 8064
benz 8063
##との 8062
##ova 8061
451 8060
save 8059
##wing 8058
##ますのて 8057
kai 8056
りは 8055
##hua 8054
##rect 8053
rainer 8052
##unge 8051
448 8050
##0m 8049
adsl 8048
##かな 8047
guestname 8046
##uma 8045
##kins 8044
##zu 8043
tokichoi 8042
##price 8041
county 8040
##med 8039
##mus 8038
rmk 8037
391 8036
address 8035
vm 8034
えて 8033
openload 8032
##group 8031
##hin 8030
##iginal 8029
amg 8028
urban 8027
##oz 8026
jobs 8025
emi 8024
##public 8023
beautiful 8022
##sch 8021
album 8020
##dden 8019
##bell 8018
jerry 8017
works 8016
hostel 8015
miller 8014
##drive 8013
##rmin 8012
##１０ 8011
376 8010
boot 8009
828 8008
##370 8007
##fx 8006
##cm～ 8005
1885 8004
##nome 8003
##ctionary 8002
##oman 8001
##lish 8000
##cr 7999
##hm 7998
433 7997
##how 7996
432 7995
francis 7994
xi 7993
c919 7992
b5 7991
evernote 7990
##uc 7989
vga 7988
##3000 7987
coupe 7986
##urg 7985
##cca 7984
##uality 7983
019 7982
6g 7981
れる 7980
multi 7979
##また 7978
##ett 7977
em 7976
hey 7975
##ani 7974
##tax 7973
##rma 7972
inside 7971
than 7970
740 7969
leonnhurt 7968
##jin 7967
ict 7966
れた 7965
bird 7964
notes 7963
200mm 7962
くの 7961
##dical 7960
##lli 7959
result 7958
442 7957
iu 7956
ee 7955
438 7954
smap 7953
gopro 7952
##last 7951
yin 7950
pure 7949
998 7948
32g 7947
けた 7946
5kg 7945
##dan 7944
##rame 7943
mama 7942
##oot 7941
bean 7940
marketing 7939
##hur 7938
2l 7937
bella 7936
sync 7935
xuite 7934
##ground 7933
515 7932
discuz 7931
##getrelax 7930
##ince 7929
##bay 7928
##5s 7927
cj 7926
##イス 7925
gmat 7924
apt 7923
##pass 7922
jing 7921
##rix 7920
c4 7919
rich 7918
##とても 7917
niusnews 7916
##ello 7915
bag 7914
770 7913
##eting 7912
##mobile 7911
１８ 7910
culture 7909
015 7908
##のてすか 7907
377 7906
1020 7905
area 7904
##ience 7903
616 7902
details 7901
gp 7900
universal 7899
silver 7898
dit 7897
はお 7896
private 7895
ddd 7894
u11 7893
kanshu 7892
##ified 7891
fung 7890
##nny 7889
dx 7888
##520 7887
tai 7886
475 7885
023 7884
##fr 7883
##lean 7882
3s 7881
##pin 7880
429 7879
##rin 7878
25000 7877
ly 7876
rick 7875
##bility 7874
usb3 7873
banner 7872
##baru 7871
##gion 7870
metal 7869
dt 7868
vdf 7867
1871 7866
karl 7865
qualcomm 7864
bear 7863
1010 7862
oldid 7861
ian 7860
jo 7859
##tors 7858
population 7857
##ernel 7856
1882 7855
mmorpg 7854
##mv 7853
##bike 7852
603 7851
##© 7850
ww 7849
friend 7848
##ager 7847
exhibition 7846
##del 7845
##pods 7844
fpx 7843
structure 7842
##free 7841
##tings 7840
kl 7839
##rley 7838
##copyright 7837
##mma 7836
california 7835
3400 7834
orange 7833
yoga 7832
4l 7831
canmake 7830
honey 7829
##anda 7828
##コメント 7827
595 7826
nikkie 7825
##ルハイト 7824
dhl 7823
publishing 7822
##mall 7821
##gnet 7820
20cm 7819
513 7818
##クセス 7817
##┅ 7816
e88 7815
970 7814
##dog 7813
fishbase 7812
##! 7811
##" 7810
### 7809
##$ 7808
##% 7807
##& 7806
##' 7805
##( 7804
##) 7803
##* 7802
##+ 7801
##, 7800
##- 7799
##. 7798
##/ 7797
##: 7796
##; 7795
##< 7794
##= 7793
##> 7792
##? 7791
##@ 7790
##[ 7789
##\ 7788
##] 7787
##^ 7786
##_ 7785
##{ 7784
##| 7783
##} 7782
##~ 7781
##£ 7780
##¤ 7779
##¥ 7778
##§ 7777
##« 7776
##± 7775
##³ 7774
##µ 7773
##· 7772
##¹ 7771
##º 7770
##» 7769
##¼ 7768
##ß 7767
##æ 7766
##÷ 7765
##ø 7764
##đ 7763
##ŋ 7762
##ɔ 7761
##ə 7760
##ɡ 7759
##ʰ 7758
##ˇ 7757
##ˈ 7756
##ˊ 7755
##ˋ 7754
##ˍ 7753
##ː 7752
##˙ 7751
##˚ 7750
##ˢ 7749
##α 7748
##β 7747
##γ 7746
##δ 7745
##ε 7744
##η 7743
##θ 7742
##ι 7741
##κ 7740
##λ 7739
##μ 7738
##ν 7737
##ο 7736
##π 7735
##ρ 7734
##ς 7733
##σ 7732
##τ 7731
##υ 7730
##φ 7729
##χ 7728
##ψ 7727
##б 7726
##в 7725
##г 7724
##д 7723
##е 7722
##ж 7721
##з 7720
##к 7719
##л 7718
##м 7717
##н 7716
##о 7715
##п 7714
##р 7713
##с 7712
##т 7711
##у 7710
##ф 7709
##х 7708
##ц 7707
##ч 7706
##ш 7705
##ы 7704
##ь 7703
##і 7702
##ا 7701
##ب 7700
##ة 7699
##ت 7698
##د 7697
##ر 7696
##س 7695
##ع 7694
##ل 7693
##م 7692
##ن 7691
##ه 7690
##و 7689
##ي 7688
##۩ 7687
##ก 7686
##ง 7685
##น 7684
##ม 7683
##ย 7682
##ร 7681
##อ 7680
##า 7679
##เ 7678
##๑ 7677
##་ 7676
##ღ 7675
##ᄀ 7674
##ᄁ 7673
##ᄂ 7672
##ᄃ 7671
##ᄅ 7670
##ᄆ 7669
##ᄇ 7668
##ᄈ 7667
##ᄉ 7666
##ᄋ 7665
##ᄌ 7664
##ᄎ 7663
##ᄏ 7662
##ᄐ 7661
##ᄑ 7660
##ᄒ 7659
##ᅢ 7658
##ᅣ 7657
##ᅥ 7656
##ᅦ 7655
##ᅧ 7654
##ᅨ 7653
##ᅪ 7652
##ᅬ 7651
##ᅭ 7650
##ᅮ 7649
##ᅯ 7648
##ᅲ 7647
##ᅳ 7646
##ᅴ 7645
##ᆷ 7644
##ᆸ 7643
##ᆺ 7642
##ᆻ 7641
##ᗜ 7640
##ᵃ 7639
##ᵉ 7638
##ᵍ 7637
##ᵏ 7636
##ᵐ 7635
##ᵒ 7634
##ᵘ 7633
##‖ 7632
##„ 7631
##† 7630
##• 7629
##‥ 7628
##‧ 7627
##  7626
##‰ 7625
##′ 7624
##″ 7623
##‹ 7622
##› 7621
##※ 7620
##‿ 7619
##⁄ 7618
##ⁱ 7617
##⁺ 7616
##ⁿ 7615
##₁ 7614
##₃ 7613
##₄ 7612
##€ 7611
##№ 7610
##ⅰ 7609
##ⅱ 7608
##ⅲ 7607
##ⅳ 7606
##ⅴ 7605
##↔ 7604
##↗ 7603
##↘ 7602
##⇒ 7601
##∀ 7600
##− 7599
##∕ 7598
##∙ 7597
##√ 7596
##∞ 7595
##∟ 7594
##∠ 7593
##∣ 7592
##∩ 7591
##∮ 7590
##∶ 7589
##∼ 7588
##∽ 7587
##≈ 7586
##≒ 7585
##≡ 7584
##≤ 7583
##≥ 7582
##≦ 7581
##≧ 7580
##≪ 7579
##≫ 7578
##⊙ 7577
##⋅ 7576
##⋈ 7575
##⋯ 7574
##⌒ 7573
##① 7572
##② 7571
##③ 7570
##④ 7569
##⑤ 7568
##⑥ 7567
##⑦ 7566
##⑧ 7565
##⑨ 7564
##⑩ 7563
##⑴ 7562
##⑵ 7561
##⑶ 7560
##⑷ 7559
##⑸ 7558
##⒈ 7557
##⒉ 7556
##⒊ 7555
##⒋ 7554
##ⓒ 7553
##ⓔ 7552
##ⓘ 7551
##━ 7550
##┃ 7549
##┆ 7548
##┊ 7547
##┌ 7546
##└ 7545
##├ 7544
##┣ 7543
##═ 7542
##║ 7541
##╚ 7540
##╞ 7539
##╠ 7538
##╭ 7537
##╮ 7536
##╯ 7535
##╰ 7534
##╱ 7533
##╳ 7532
##▂ 7531
##▃ 7530
##▅ 7529
##▇ 7528
##▉ 7527
##▋ 7526
##▌ 7525
##▍ 7524
##▎ 7523
##□ 7522
##▪ 7521
##▫ 7520
##▬ 7519
##△ 7518
##▶ 7517
##► 7516
##▽ 7515
##◇ 7514
##◕ 7513
##◠ 7512
##◢ 7511
##◤ 7510
##☀ 7509
##☕ 7508
##☞ 7507
##☺ 7506
##☼ 7505
##♀ 7504
##♂ 7503
##♠ 7502
##♡ 7501
##♣ 7500
##♦ 7499
##♫ 7498
##♬ 7497
##✈ 7496
##✔ 7495
##✕ 7494
##✖ 7493
##✦ 7492
##✨ 7491
##✪ 7490
##✰ 7489
##✿ 7488
##❀ 7487
##➜ 7486
##➤ 7485
##⦿ 7484
##、 7483
##。 7482
##〃 7481
##々 7480
##〇 7479
##〈 7478
##〉 7477
##《 7476
##》 7475
##「 7474
##」 7473
##『 7472
##』 7471
##【 7470
##】 7469
##〓 7468
##〔 7467
##〕 7466
##〖 7465
##〗 7464
##〜 7463
##〝 7462
##〞 7461
##ぃ 7460
##ぇ 7459
##ぬ 7458
##ふ 7457
##ほ 7456
##む 7455
##ゃ 7454
##ゅ 7453
##ゆ 7452
##ょ 7451
##゜ 7450
##ゝ 7449
##ァ 7448
##ゥ 7447
##エ 7446
##ォ 7445
##ケ 7444
##サ 7443
##セ 7442
##ソ 7441
##ッ 7440
##ニ 7439
##ヌ 7438
##ネ 7437
##ノ 7436
##ヘ 7435
##モ 7434
##ャ 7433
##ヤ 7432
##ュ 7431
##ユ 7430
##ョ 7429
##ヨ 7428
##ワ 7427
##ヲ 7426
##・ 7425
##ヽ 7424
##ㄅ 7423
##ㄆ 7422
##ㄇ 7421
##ㄉ 7420
##ㄋ 7419
##ㄌ 7418
##ㄍ 7417
##ㄎ 7416
##ㄏ 7415
##ㄒ 7414
##ㄚ 7413
##ㄛ 7412
##ㄞ 7411
##ㄟ 7410
##ㄢ 7409
##ㄤ 7408
##ㄥ 7407
##ㄧ 7406
##ㄨ 7405
##ㆍ 7404
##㈦ 7403
##㊣ 7402
##㗎 7401
“ 7400
” 7399
— 7398
… 7397
― 7396
’ 7395
‘ 7394
– 7393
` 7392
ⅹ 7391
ⅸ 7390
铧 7389
贄 7388
﹀ 7387
飭 7386
゛ 7385
錡 7384
邡 7383
璩 7382
卹 7381
闈 7380
鳉 7379
鍙 7378
瓩 7377
鲉 7376
摃 7375
燬 7374
唢 7373
鲇 7372
钚 7371
镊 7370
覲 7369
僳 7368
赟 7367
蚬 7366
鄯 7365
铱 7364
訇 7363
坻 7362
掮 7361
茆 7360
垸 7359
砀 7358
俶 7357
鲀 7356
绌 7355
澇 7354
撙 7353
蘅 7352
馕 7351
摰 7350
傈 7349
旳 7348
髌 7347
枞 7346
鈽 7345
崃 7344
絀 7343
皲 7342
☟ 7341
坜 7340
鲅 7339
箬 7338
旸 7337
訐 7336
锗 7335
韫 7334
鏵 7333
炤 7332
氽 7331
恽 7330
岿 7329
痲 7328
鎘 7327
谳 7326
舢 7325
鳟 7324
萣 7323
錸 7322
蛱 7321
聩 7320
𫚥 7319
锴 7318
殚 7317
鹬 7316
鲽 7315
崮 7314
擤 7313
璠 7312
阗 7311
囵 7310
邗 7309
迳 7308
鸩 7307
滘 7306
杲 7305
讣 7304
轫 7303
璘 7302
缶 7301
馊 7300
亻 7299
锷 7298
覈 7297
褛 7296
鲔 7295
蚧 7294
陉 7293
郓 7292
犟 7291
铯 7290
蓥 7289
篾 7288
赉 7287
抻 7286
瓔 7285
螈 7284
鲳 7283
锶 7282
砻 7281
陜 7280
铋 7279
逯 7278
垅 7277
褴 7276
衊 7275
鹮 7274
郗 7273
翀 7272
铳 7271
訾 7270
諉 7269
芨 7268
糌 7267
沔 7266
嶝 7265
氩 7264
鎰 7263
鳎 7262
隗 7261
炝 7260
湎 7259
蛄 7258
埭 7257
苎 7256
渑 7255
❖ 7254
闳 7253
畈 7252
仡 7251
芗 7250
郯 7249
闱 7248
蓀 7247
鸮 7246
龃 7245
龉 7244
莜 7243
矸 7242
硌 7241
蛏 7240
簋 7239
蒯 7238
笄 7237
齟 7236
菰 7235
齬 7234
匭 7233
玆 7232
茛 7231
甑 7230
瘊 7229
鳜 7228
绉 7227
锒 7226
钅 7225
纥 7224
苳 7223
汊 7222
❷ 7221
鹗 7220
黟 7219
鐽 7218
谡 7217
泔 7216
鸫 7215
罘 7214
溆 7213
鳚 7212
瓠 7211
櫫 7210
枥 7209
癔 7208
胪 7207
贽 7206
廪 7205
垓 7204
貲 7203
蘖 7202
沆 7201
郃 7200
忾 7199
浐 7198
薮 7197
蚶 7196
旯 7195
肼 7194
爨 7193
錕 7192
狍 7191
韪 7190
▷ 7189
佾 7188
螟 7187
诒 7186
癿 7185
圯 7184
钹 7183
鋌 7182
氵 7181
蝰 7180
郇 7179
舨 7178
骺 7177
∴ 7176
羰 7175
﹎ 7174
踽 7173
凫 7172
螫 7171
饧 7170
嬋 7169
铊 7168
圪 7167
锃 7166
侪 7165
劼 7164
鲵 7163
❶ 7162
咝 7161
凼 7160
沤 7159
郏 7158
蒴 7157
缬 7156
螭 7155
颀 7154
唛 7153
莼 7152
酞 7151
哚 7150
藁 7149
诂 7148
铍 7147
骢 7146
鲭 7145
騫 7144
誊 7143
浠 7142
篦 7141
謇 7140
蝮 7139
砦 7138
琚 7137
筚 7136
轸 7135
镓 7134
椤 7133
▏ 7132
俅 7131
彞 7130
炘 7129
庑 7128
钋 7127
鳔 7126
勰 7125
淝 7124
貉 7123
捭 7122
玨 7121
仫 7120
愠 7119
艏 7118
恂 7117
鍚 7116
萜 7115
辋 7114
鲆 7113
竑 7112
邙 7111
颏 7110
跬 7109
喑 7108
吲 7107
汜 7106
蠵 7105
缛 7104
奭 7103
硚 7102
桷 7101
疃 7100
魉 7099
缦 7098
钕 7097
蝽 7096
逄 7095
镬 7094
绺 7093
孓 7092
嵴 7091
镝 7090
圝 7089
餽 7088
笳 7087
穰 7086
郄 7085
逖 7084
茔 7083
埙 7082
翕 7081
摜 7080
苴 7079
鸬 7078
窣 7077
蛲 7076
聃 7075
礽 7074
莳 7073
醌 7072
鳐 7071
鹛 7070
愎 7069
椴 7068
胼 7067
疴 7066
轱 7065
锨 7064
弢 7063
铟 7062
翥 7061
鬻 7060
鬨 7059
缫 7058
诨 7057
龇 7056
箜 7055
樨 7054
镒 7053
硖 7052
✎ 7051
蒺 7050
桫 7049
蝾 7048
妫 7047
鯤 7046
嶷 7045
鋆 7044
藔 7043
峁 7042
钍 7041
苌 7040
酆 7039
俣 7038
讦 7037
泅 7036
骝 7035
徭 7034
濉 7033
賒 7032
鹚 7031
哝 7030
闩 7029
钽 7028
罟 7027
芘 7026
氘 7025
扺 7024
溘 7023
鲠 7022
丌 7021
钸 7020
蜉 7019
疍 7018
耵 7017
亓 7016
辎 7015
帏 7014
洺 7013
硷 7012
铖 7011
蚴 7010
鳢 7009
棻 7008
湉 7007
欉 7006
篌 7005
烜 7004
闿 7003
镫 7002
渌 7001
诹 7000
窸 6999
掾 6998
悫 6997
漥 6996
阄 6995
鲂 6994
櫂 6993
坭 6992
筿 6991
肟 6990
哞 6989
鲮 6988
簣 6987
玘 6986
鼩 6985
蒗 6984
砟 6983
瑭 6982
聍 6981
峄 6980
豕 6979
瀣 6978
瘰 6977
磴 6976
氚 6975
𩾌 6974
鄄 6973
葶 6972
⑹ 6971
瘿 6970
冫 6969
铌 6968
碜 6967
瓘 6966
沺 6965
𩽾 6964
龢 6963
髁 6962
谿 6961
鳙 6960
魮 6959
齲 6958
賸 6957
嗞 6956
哙 6955
馑 6954
罅 6953
阊 6952
荇 6951
鳏 6950
缂 6949
煇 6948
﹊ 6947
鲡 6946
蒌 6945
脷 6944
恹 6943
蚋 6942
莨 6941
嚯 6940
鲿 6939
藷 6938
鯓 6937
枧 6936
逑 6935
鲎 6934
魑 6933
蕹 6932
鬲 6931
隰 6930
蛉 6929
蕖 6928
笫 6927
禳 6926
岜 6925
鸱 6924
馐 6923
浈 6922
逦 6921
茕 6920
鱘 6919
甪 6918
钇 6917
銨 6916
泺 6915
檫 6914
颙 6913
闼 6912
缵 6911
崚 6910
塹 6909
怿 6908
瑷 6907
栢 6906
揠 6905
濞 6904
髹 6903
洌 6902
剡 6901
猊 6900
豸 6899
伱 6898
垌 6897
鳊 6896
滹 6895
∑ 6894
錏 6893
詪 6892
欹 6891
镞 6890
邾 6889
釆 6888
韞 6887
訌 6886
罈 6885
❸ 6884
蛸 6883
艉 6882
昝 6881
籀 6880
悭 6879
ζ 6878
锜 6877
縻 6876
碲 6875
圌 6874
菔 6873
啭 6872
頔 6871
镧 6870
癀 6869
∵ 6868
榧 6867
铷 6866
噘 6865
殄 6864
黢 6863
帙 6862
呯 6861
襞 6860
曷 6859
蝓 6858
艿 6857
摑 6856
噫 6855
瘗 6854
躅 6853
簟 6852
畠 6851
谵 6850
倣 6849
鳇 6848
旼 6847
敉 6846
襦 6845
锱 6844
趄 6843
庥 6842
倨 6841
蛞 6840
筮 6839
怛 6838
蒽 6837
毖 6836
驽 6835
滏 6834
偲 6833
鹟 6832
譟 6831
炱 6830
薜 6829
牖 6828
炆 6827
匏 6826
跗 6825
沩 6824
檩 6823
曈 6822
堉 6821
锾 6820
笤 6819
逋 6818
湜 6817
垕 6816
銲 6815
缟 6814
骓 6813
﹪ 6812
蠓 6811
醅 6810
荑 6809
侩 6808
黩 6807
圮 6806
柝 6805
蟥 6804
狷 6803
扞 6802
镠 6801
鮠 6800
鹩 6799
趔 6798
瘕 6797
鱺 6796
诌 6795
苖 6794
犇 6793
踯 6792
湔 6791
妏 6790
俦 6789
蹰 6788
诳 6787
﹌ 6786
郾 6785
踰 6784
疬 6783
熘 6782
薤 6781
鬩 6780
腚 6779
郞 6778
跶 6777
彊 6776
棰 6775
铑 6774
鷥 6773
墣 6772
彘 6771
鲩 6770
馓 6769
☝ 6768
焓 6767
锕 6766
砜 6765
鲻 6764
姵 6763
鈷 6762
鲥 6761
蓊 6760
劬 6759
☑ 6758
鶚 6757
勍 6756
腧 6755
箪 6754
ξ 6753
娌 6752
阋 6751
娈 6750
胗 6749
烴 6748
⒌ 6747
箓 6746
棨 6745
蝣 6744
纡 6743
戢 6742
塍 6741
纟 6740
巯 6739
苾 6738
戗 6737
鱟 6736
髙 6735
鮡 6734
畬 6733
垡 6732
嵛 6731
欤 6730
垧 6729
勗 6728
袓 6727
笪 6726
幛 6725
阏 6724
洳 6723
屺 6722
妯 6721
劢 6720
潲 6719
靺 6718
蚺 6717
箧 6716
澂 6715
坩 6714
椟 6713
竦 6712
⑺ 6711
仉 6710
铙 6709
鯙 6708
簕 6707
栱 6706
彡 6705
鞨 6704
翚 6703
睒 6702
‐ 6701
锝 6700
眭 6699
寤 6698
撺 6697
鲗 6696
埚 6695
鲧 6694
纮 6693
錾 6692
辔 6691
睺 6690
狲 6689
亶 6688
狻 6687
嗵 6686
↙ 6685
猁 6684
鹋 6683
楯 6682
怄 6681
蚨 6680
笕 6679
薷 6678
鱒 6677
猞 6676
槊 6675
殮 6674
玦 6673
茌 6672
穑 6671
焐 6670
柰 6669
毐 6668
衽 6667
酹 6666
曌 6665
荜 6664
糁 6663
洇 6662
喾 6661
鸸 6660
窳 6659
㑩 6658
蹚 6657
尪 6656
俋 6655
鈐 6654
溲 6653
། 6652
雩 6651
邠 6650
輊 6649
鼯 6648
秕 6647
镏 6646
蛴 6645
姮 6644
嗫 6643
袆 6642
騖 6641
铈 6640
缗 6639
缯 6638
绂 6637
仵 6636
黥 6635
箎 6634
妁 6633
囯 6632
铼 6631
砵 6630
沬 6629
逡 6628
椐 6627
嫱 6626
玎 6625
筌 6624
伥 6623
腠 6622
琤 6621
囘 6620
尅 6619
锔 6618
朊 6617
跏 6616
佺 6615
翮 6614
浥 6613
宀 6612
啁 6611
骘 6610
嚅 6609
邴 6608
鸰 6607
荦 6606
勅 6605
诜 6604
缑 6603
疠 6602
嘬 6601
曛 6600
睚 6599
畚 6598
猢 6597
魟 6596
磔 6595
掄 6594
鸶 6593
鸲 6592
帔 6591
觚 6590
髀 6589
錩 6588
菪 6587
∨ 6586
塱 6585
亍 6584
燠 6583
傕 6582
禊 6581
𫚭 6580
鲣 6579
荩 6578
钲 6577
圉 6576
钐 6575
孋 6574
蟳 6573
軻 6572
柁 6571
辂 6570
鸷 6569
鋃 6568
浉 6567
镔 6566
讵 6565
蕞 6564
樗 6563
髭 6562
鏊 6561
澐 6560
圹 6559
鐐 6558
澶 6557
晧 6556
鵟 6555
蓣 6554
鲹 6553
髫 6552
嵙 6551
浤 6550
瘼 6549
爿 6548
颺 6547
栲 6546
矬 6545
腘 6544
樋 6543
疰 6542
掼 6541
崀 6540
⑻ 6539
卣 6538
萏 6537
杪 6536
肫 6535
昺 6534
炣 6533
訃 6532
犴 6531
撣 6530
廋 6529
鈑 6528
琯 6527
隹 6526
豨 6525
﹉ 6524
飴 6523
嗥 6522
镪 6521
鎩 6520
閤 6519
侸 6518
畋 6517
廍 6516
☎ 6515
阝 6514
诓 6513
徂 6512
蓍 6511
洧 6510
糨 6509
拏 6508
𫖮 6507
褙 6506
∧ 6505
蹁 6504
痦 6503
僰 6502
栊 6501
蹠 6500
阯 6499
煳 6498
鵙 6497
鋐 6496
忝 6495
笭 6494
∈ 6493
驤 6492
擻 6491
暠 6490
廾 6489
﹋ 6488
锛 6487
殛 6486
倻 6485
袢 6484
晙 6483
缳 6482
鍘 6481
埴 6480
嗄 6479
舄 6478
駟 6477
飏 6476
溽 6475
忸 6474
奁 6473
▵ 6472
嘏 6471
朓 6470
嫪 6469
昰 6468
黻 6467
蠲 6466
豳 6465
眇 6464
岢 6463
赀 6462
嶸 6461
姘 6460
彳 6459
柽 6458
坌 6457
鄜 6456
跸 6455
暘 6454
狳 6453
樘 6452
幗 6451
韃 6450
鎢 6449
玹 6448
濰 6447
埇 6446
愔 6445
垟 6444
廨 6443
迨 6442
箨 6441
疋 6440
翃 6439
馦 6438
暾 6437
扌 6436
镲 6435
滉 6434
垴 6433
茀 6432
犰 6431
彀 6430
屣 6429
苈 6428
缃 6427
鷸 6426
秾 6425
⑼ 6424
邶 6423
耜 6422
粝 6421
滗 6420
妗 6419
倥 6418
饹 6417
斲 6416
饸 6415
酽 6414
秫 6413
崢 6412
▧ 6411
妺 6410
澔 6409
唵 6408
蝥 6407
葑 6406
悝 6405
瞽 6404
猱 6403
嗮 6402
ˉ 6401
胬 6400
獬 6399
搴 6398
坼 6397
狨 6396
牘 6395
殍 6394
┼ 6393
寔 6392
鴞 6391
钫 6390
楦 6389
崤 6388
刿 6387
¨ 6386
轳 6385
綝 6384
玢 6383
⬇ 6382
鍬 6381
銥 6380
罴 6379
岈 6378
黷 6377
镱 6376
虺 6375
怩 6374
鐫 6373
抔 6372
尢 6371
⒍ 6370
髡 6369
螓 6368
淠 6367
锇 6366
艄 6365
迓 6364
诔 6363
棪 6362
曩 6361
藨 6360
碶 6359
栻 6358
鎵 6357
蠊 6356
餿 6355
邽 6354
雠 6353
涑 6352
呔 6351
鬘 6350
👇 6349
贠 6348
柊 6347
ಥ 6346
鉦 6345
鈿 6344
瓚 6343
氇 6342
氆 6341
倓 6340
絜 6339
囓 6338
藺 6337
燹 6336
渟 6335
鹇 6334
钌 6333
瘖 6332
垆 6331
䜣 6330
↖ 6329
茍 6328
┐ 6327
臵 6326
鄣 6325
珽 6324
柃 6323
蒾 6322
柺 6321
❹ 6320
⑾ 6319
搧 6318
棼 6317
揿 6316
觇 6315
氅 6314
慜 6313
巛 6312
鱧 6311
鋕 6310
辏 6309
埒 6308
佴 6307
栌 6306
艽 6305
嫒 6304
鳀 6303
◀ 6302
歃 6301
堊 6300
陬 6299
菝 6298
祼 6297
躄 6296
瑱 6295
鸕 6294
褡 6293
驪 6292
鲼 6291
浍 6290
錞 6289
葜 6288
笥 6287
啐 6286
堞 6285
螅 6284
漈 6283
壼 6282
嗉 6281
諍 6280
廔 6279
遄 6278
瓿 6277
燚 6276
戆 6275
峠 6274
媪 6273
乭 6272
鞮 6271
铫 6270
仳 6269
湲 6268
幷 6267
鶿 6266
纛 6265
‵ 6264
镅 6263
艸 6262
暻 6261
沄 6260
偬 6259
┘ 6258
𫚉 6257
骀 6256
閭 6255
鄚 6254
珰 6253
😄 6252
燐 6251
巉 6250
罍 6249
´ 6248
赜 6247
蜑 6246
傧 6245
黉 6244
昃 6243
埝 6242
鼱 6241
刂 6240
⒎ 6239
飧 6238
醱 6237
鼇 6236
藪 6235
湣 6234
毬 6233
榎 6232
簃 6231
☉ 6230
辚 6229
玙 6228
獴 6227
貍 6226
寳 6225
铕 6224
笊 6223
齑 6222
诮 6221
蜮 6220
橛 6219
☛ 6218
魃 6217
榊 6216
惣 6215
∫ 6214
钪 6213
镚 6212
筼 6211
祆 6210
牂 6209
玕 6208
淸 6207
鹎 6206
榘 6205
喨 6204
踼 6203
蛩 6202
伋 6201
铥 6200
蚍 6199
屃 6198
郛 6197
桕 6196
尐 6195
鼍 6194
鸛 6193
轾 6192
铒 6191
辶 6190
禇 6189
瑢 6188
遹 6187
旄 6186
剞 6185
⑽ 6184
鮈 6183
稃 6182
懔 6181
屙 6180
鈊 6179
谠 6178
讠 6177
蚰 6176
桴 6175
铪 6174
蝲 6173
糢 6172
夆 6171
𪸩 6170
鹡 6169
盦 6168
渼 6167
泚 6166
黧 6165
鸻 6164
軫 6163
脔 6162
嵖 6161
侔 6160
黼 6159
祓 6158
拊 6157
厍 6156
℡ 6155
黾 6154
烺 6153
淯 6152
侂 6151
摭 6150
︵ 6149
褵 6148
汭 6147
饉 6146
泐 6145
嫄 6144
冴 6143
👉 6142
揾 6141
隷 6140
㈠ 6139
ⅵ 6138
芰 6137
涷 6136
洎 6135
尓 6134
瘆 6133
琿 6132
湓 6131
趿 6130
禕 6129
桤 6128
螵 6127
悒 6126
儸 6125
𪨶 6124
杌 6123
赑 6122
瓞 6121
顳 6120
裢 6119
愓 6118
誆 6117
鲐 6116
螽 6115
𫚒 6114
璪 6113
煚 6112
捯 6111
傉 6110
馃 6109
蔸 6108
缁 6107
✤ 6106
蔴 6105
脢 6104
篼 6103
瓌 6102
屾 6101
痾 6100
搥 6099
峩 6098
卐 6097
锫 6096
崐 6095
墬 6094
鲦 6093
谝 6092
翾 6091
縊 6090
夤 6089
赍 6088
硃 6087
殳 6086
媺 6085
鱀 6084
膂 6083
礻 6082
靬 6081
▓ 6080
藠 6079
綮 6078
栝 6077
⑿ 6076
谰 6075
筇 6074
鹀 6073
嫗 6072
偁 6071
忄 6070
骖 6069
劻 6068
筜 6067
旂 6066
嫫 6065
𪟝 6064
萆 6063
篳 6062
箅 6061
珧 6060
楙 6059
旰 6058
喁 6057
螬 6056
硎 6055
矻 6054
浞 6053
栳 6052
烎 6051
怍 6050
厎 6049
髑 6048
谖 6047
殂 6046
槨 6045
丷 6044
◈ 6043
髎 6042
驩 6041
籴 6040
毌 6039
陔 6038
璆 6037
凃 6036
➕ 6035
蘧 6034
沚 6033
屮 6032
酃 6031
嘁 6030
ɑ 6029
镨 6028
耧 6027
砬 6026
猇 6025
卬 6024
鵠 6023
袴 6022
繙 6021
磙 6020
枨 6019
畛 6018
梃 6017
乄 6016
驺 6015
秈 6014
☜ 6013
⒏ 6012
犭 6011
伧 6010
鰹 6009
贶 6008
浹 6007
抺 6006
媵 6005
勲 6004
✬ 6003
貊 6002
禩 6001
皝 6000
悛 5999
哓 5998
泖 5997
鲬 5996
缣 5995
㈡ 5994
羶 5993
旆 5992
钆 5991
槙 5990
枹 5989
㭴 5988
⃠ 5987
粢 5986
焢 5985
∷ 5984
鬬 5983
茑 5982
疪 5981
銫 5980
蔟 5979
紕 5978
愾 5977
娭 5976
觴 5975
褊 5974
烝 5973
沵 5972
縯 5971
癆 5970
▕ 5969
馼 5968
贗 5967
䶮 5966
😊 5965
蘩 5964
楢 5963
梣 5962
廻 5961
☂ 5960
臚 5959
縠 5958
皤 5957
癯 5956
栒 5955
枴 5954
夼 5953
俵 5952
蝤 5951
蕺 5950
籓 5949
壎 5948
唻 5947
禤 5946
磘 5945
婳 5944
堠 5943
〒 5942
牁 5941
烔 5940
桄 5939
呙 5938
蜞 5937
砹 5936
梿 5935
麿 5934
鶉 5933
鲃 5932
胂 5931
澥 5930
欷 5929
旒 5928
弇 5927
繻 5926
懟 5925
吔 5924
頇 5923
裒 5922
胙 5921
硇 5920
玗 5919
訸 5918
濊 5917
顥 5916
顢 5915
暎 5914
鼙 5913
搦 5912
尙 5911
沕 5910
槑 5909
曱 5908
撘 5907
¯ 5906
畯 5905
ⅶ 5904
韡 5903
喈 5902
蔹 5901
菉 5900
鸹 5899
幵 5898
岽 5897
魈 5896
钬 5895
憍 5894
圞 5893
鹪 5892
癩 5891
璦 5890
漶 5889
鰈 5888
譭 5887
稙 5886
晳 5885
峣 5884
壸 5883
鉞 5882
蹓 5881
罨 5880
渫 5879
毑 5878
栟 5877
曽 5876
昐 5875
硗 5874
熜 5873
⒀ 5872
驫 5871
蟊 5870
兿 5869
䃅 5868
½ 5867
鲋 5866
礑 5865
搾 5864
〆 5863
鵪 5862
踫 5861
荛 5860
呖 5859
捫 5858
鱚 5857
粜 5856
璈 5855
珵 5854
憷 5853
鳘 5852
顗 5851
蠃 5850
硪 5849
楬 5848
亊 5847
尛 5846
❺ 5845
♢ 5844
┬ 5843
麇 5842
镢 5841
縭 5840
笮 5839
佷 5838
禚 5837
祏 5836
牾 5835
刳 5834
◡ 5833
鯧 5832
鐪 5831
錙 5830
郿 5829
瀍 5828
忞 5827
廆 5826
䲗 5825
鼷 5824
鲚 5823
鐶 5822
桹 5821
酎 5820
嚞 5819
菂 5818
硏 5817
毳 5816
唭 5815
偓 5814
𫛭 5813
雫 5812
澪 5811
媗 5810
锽 5809
锎 5808
舣 5807
犛 5806
昪 5805
巜 5804
嬲 5803
孥 5802
吥 5801
剴 5800
ㄣ 5799
麈 5798
皞 5797
埏 5796
餍 5795
鄘 5794
茳 5793
戽 5792
嚒 5791
逹 5790
謢 5789
縟 5788
朿 5787
忉 5786
幞 5785
崞 5784
兕 5783
鹨 5782
觋 5781
倮 5780
鶼 5779
韁 5778
靑 5777
溷 5776
￼ 5775
廛 5774
丏 5773
詒 5772
犽 5771
淏 5770
屦 5769
倢 5768
鉏 5767
釩 5766
眬 5765
琹 5764
炻 5763
￡ 5762
鲊 5761
镎 5760
酡 5759
昳 5758
鰱 5757
卩 5756
餬 5755
詎 5754
蜩 5753
苤 5752
濶 5751
厶 5750
迚 5749
荬 5748
媜 5747
塽 5746
儇 5745
丄 5744
ⅷ 5743
霨 5742
♧ 5741
鹣 5740
虿 5739
祔 5738
鍇 5737
哖 5736
諤 5735
犼 5734
侘 5733
袛 5732
玧 5731
柙 5730
卺 5729
纻 5728
眄 5727
狴 5726
浡 5725
骎 5724
磉 5723
畊 5722
幪 5721
唎 5720
哕 5719
兟 5718
𫖯 5717
镙 5716
轺 5715
訚 5714
狁 5713
汧 5712
彖 5711
亹 5710
镤 5709
蹀 5708
嗩 5707
䲢 5706
鼗 5705
鄠 5704
郕 5703
觏 5702
葸 5701
晸 5700
钷 5699
醢 5698
庋 5697
✧ 5696
笸 5695
燏 5694
熺 5693
扥 5692
扆 5691
齷 5690
齪 5689
颎 5688
扃 5687
怫 5686
宬 5685
厓 5684
伲 5683
霙 5682
蓠 5681
梼 5680
✄ 5679
⒁ 5678
軔 5677
旿 5676
铽 5675
螣 5674
搋 5673
丅 5672
ㅂ 5671
☁ 5670
﹃ 5669
舯 5668
忮 5667
侉 5666
﹜ 5665
﹛ 5664
鮀 5663
飑 5662
镘 5661
锿 5660
鉲 5659
詈 5658
蔦 5657
嚭 5656
卲 5655
刖 5654
銼 5653
萢 5652
狛 5651
嵎 5650
⚘ 5649
钖 5648
跫 5647
諶 5646
諲 5645
莛 5644
磻 5643
∇ 5642
鬈 5641
镥 5640
訢 5639
愴 5638
廯 5637
伈 5636
鷴 5635
鬯 5634
觜 5633
溦 5632
凊 5631
㈢ 5630
菫 5629
缡 5628
檨 5627
鉈 5626
羼 5625
痖 5624
搠 5623
∪ 5622
鬙 5621
鍪 5620
釷 5619
踅 5618
讬 5617
祧 5616
汔 5615
巘 5614
堍 5613
呶 5612
➡ 5611
跣 5610
趼 5609
玏 5608
歿 5607
撄 5606
匦 5605
魣 5604
绐 5603
廸 5602
埡 5601
喦 5600
པ 5599
甡 5598
璣 5597
焮 5596
呒 5595
鍶 5594
谂 5593
碏 5592
鑌 5591
訫 5590
玚 5589
爌 5588
潁 5587
⊥ 5586
蠖 5585
脒 5584
燾 5583
掟 5582
黙 5581
宍 5580
倧 5579
鳯 5578
晡 5577
巂 5576
崟 5575
圬 5574
︾ 5573
鴇 5572
衎 5571
漷 5570
斝 5569
唦 5568
✽ 5567
鲞 5566
爀 5565
橦 5564
鹍 5563
逭 5562
豋 5561
謦 5560
莰 5559
舴 5558
盍 5557
瀹 5556
榇 5555
梠 5554
麹 5553
鞞 5552
釭 5551
褀 5550
窰 5549
澌 5548
槠 5547
掤 5546
寘 5545
蜣 5544
藎 5543
苺 5542
牻 5541
焄 5540
垱 5539
隳 5538
埯 5537
︳ 5536
骃 5535
茚 5534
罾 5533
玓 5532
饣 5531
眛 5530
炟 5529
杩 5528
埜 5527
鮗 5526
矧 5525
浘 5524
洣 5523
囷 5522
呑 5521
鐧 5520
犖 5519
熳 5518
墁 5517
〡 5516
鷂 5515
鋇 5514
牤 5513
橈 5512
槺 5511
戋 5510
廙 5509
頎 5508
漭 5507
抃 5506
龑 5505
鍦 5504
愦 5503
僜 5502
饫 5501
鏐 5500
鉥 5499
煺 5498
揺 5497
婓 5496
踺 5495
蟮 5494
癃 5493
琎 5492
姞 5491
嗾 5490
啯 5489
⒐ 5488
￠ 5487
篥 5486
溍 5485
洨 5484
橥 5483
椇 5482
啣 5481
匋 5480
觌 5479
痄 5478
琄 5477
搆 5476
❏ 5475
鹱 5474
诼 5473
苙 5472
芑 5471
糉 5470
瘜 5469
劦 5468
佉 5467
¬ 5466
鱵 5465
鍔 5464
詧 5463
詝 5462
袷 5461
薢 5460
筧 5459
媄 5458
垤 5457
☐ 5456
┈ 5455
骕 5454
鞯 5453
鑠 5452
銻 5451
祾 5450
潾 5449
橿 5448
吿 5447
‚ 5446
ᴗ 5445
騾 5444
鋹 5443
擧 5442
堦 5441
圀 5440
嚈 5439
伛 5438
鱥 5437
辿 5436
菑 5435
芴 5434
瑈 5433
攵 5432
婼 5431
顸 5430
谮 5429
肜 5428
呾 5427
鹆 5426
罒 5425
煐 5424
枓 5423
晢 5422
怃 5421
嵒 5420
镈 5419
钶 5418
轵 5417
禔 5416
姱 5415
赕 5414
裈 5413
氿 5412
屨 5411
蚡 5410
罽 5409
稈 5408
瑊 5407
烀 5406
悰 5405
帻 5404
咥 5403
郐 5402
蕗 5401
羑 5400
洐 5399
婠 5398
僊 5397
仧 5396
∏ 5395
锘 5394
諴 5393
茈 5392
栿 5391
埈 5390
咾 5389
劄 5388
⒂ 5387
塆 5386
蓪 5385
舘 5384
洈 5383
捒 5382
㹴 5381
鸝 5380
酲 5379
遘 5378
迖 5377
皐 5376
畤 5375
滎 5374
鮰 5373
颟 5372
礤 5371
礐 5370
沨 5369
樛 5368
昚 5367
崦 5366
❉ 5365
‾ 5364
铗 5363
鉬 5362
荭 5361
筅 5360
甍 5359
朘 5358
⒑ 5357
鼢 5356
飖 5355
镡 5354
鄖 5353
诎 5352
衪 5351
莸 5350
苧 5349
臌 5348
绨 5347
绠 5346
禑 5345
礅 5344
俜 5343
➌ 5342
┇ 5341
ƒ 5340
龠 5339
郪 5338
翙 5337
埧 5336
叒 5335
◣ 5334
鹁 5333
鳽 5332
酈 5331
殢 5330
昜 5329
勷 5328
藦 5327
莩 5326
缷 5325
瀼 5324
溤 5323
暲 5322
嫰 5321
✓ 5320
┑ 5319
臏 5318
胨 5317
禵 5316
砮 5315
狃 5314
涐 5313
栴 5312
暦 5311
埌 5310
騮 5309
鍠 5308
轂 5307
觯 5306
襻 5305
裥 5304
蠋 5303
缒 5302
癟 5301
瘌 5300
殫 5299
廒 5298
奓 5297
◥ 5296
མ 5295
靨 5294
蟛 5293
潻 5292
塅 5291
勦 5290
✍ 5289
ծ 5288
躂 5287
襌 5286
裎 5285
舻 5284
绗 5283
皕 5282
癍 5281
枘 5280
捜 5279
冑 5278
◁ 5277
🔽 5276
骉 5275
闐 5274
茤 5273
禠 5272
嶲 5271
唿 5270
剀 5269
㓥 5268
︴ 5267
虓 5266
蒎 5265
繖 5264
簠 5263
盉 5262
愬 5261
龀 5260
麐 5259
罣 5258
眀 5257
棐 5256
孌 5255
嚛 5254
僾 5253
▊ 5252
魨 5251
閂 5250
鑛 5249
芟 5248
穠 5247
珝 5246
惻 5245
鲘 5244
阒 5243
舲 5242
疒 5241
泩 5240
勠 5239
凖 5238
‑ 5237
苘 5236
猡 5235
噏 5234
呴 5233
鱓 5232
顒 5231
钭 5230
誑 5229
觔 5228
禟 5227
珦 5226
燋 5225
浛 5224
櫬 5223
叕 5222
冮 5221
✅ 5220
╥ 5219
😉 5218
😁 5217
魋 5216
鞥 5215
褰 5214
缐 5213
嬖 5212
匚 5211
鲌 5210
铚 5209
跞 5208
蕰 5207
缲 5206
砑 5205
盬 5204
煕 5203
溇 5202
埘 5201
𫖳 5200
箦 5199
瓖 5198
洑 5197
怱 5196
圴 5195
▔ 5194
霪 5193
銦 5192
贇 5191
谞 5190
狺 5189
塄 5188
骙 5187
閬 5186
镆 5185
蹻 5184
虒 5183
薌 5182
礬 5181
砯 5180
甗 5179
煬 5178
杻 5177
夲 5176
❻ 5175
龘 5174
鷟 5173
顙 5172
踔 5171
菹 5170
艚 5169
窅 5168
牞 5167
敔 5166
慝 5165
廌 5164
嫈 5163
☻ 5162
🌸 5161
縐 5160
歔 5159
櫟 5158
楤 5157
柷 5156
嶠 5155
媸 5154
┏ 5153
鲴 5152
蓇 5151
稂 5150
栞 5149
慍 5148
黐 5147
酂 5146
轀 5145
艟 5144
舳 5143
翫 5142
狝 5141
濩 5140
杮 5139
廼 5138
岣 5137
儛 5136
饔 5135
躐 5134
芶 5133
摶 5132
嚬 5131
呿 5130
叆 5129
乀 5128
鳓 5127
鰥 5126
鞫 5125
蘗 5124
蕓 5123
縉 5122
硔 5121
玭 5120
犨 5119
潽 5118
滠 5117
愀 5116
岞 5115
堋 5114
垻 5113
♨ 5112
駙 5111
聱 5110
绱 5109
猟 5108
廞 5107
嫺 5106
嗌 5105
吣 5104
𤩽 5103
鹖 5102
簑 5101
歺 5100
杙 5099
廑 5098
埽 5097
刋 5096
乛 5095
鳂 5094
阌 5093
阃 5092
鏻 5091
蹕 5090
賨 5089
薫 5088
蓂 5087
葖 5086
羝 5085
笾 5084
珖 5083
猹 5082
櫪 5081
寯 5080
堽 5079
垲 5078
䌷 5077
㎜ 5076
檞 5075
慥 5074
慊 5073
宧 5072
塝 5071
匄 5070
📌 5069
襖 5068
粦 5067
皦 5066
忭 5065
岵 5064
孮 5063
姈 5062
❈ 5061
轒 5060
漼 5059
渕 5058
憙 5057
夬 5056
☪ 5055
ฅ 5054
𫍽 5053
︽ 5052
鮫 5051
驃 5050
鎓 5049
襕 5048
虮 5047
翛 5046
畇 5045
檠 5044
崾 5043
堎 5042
厔 5041
仼 5040
┗ 5039
ལ 5038
𫍯 5037
褆 5036
蓽 5035
缊 5034
噍 5033
䓬 5032
╔ 5031
𫇭 5030
镟 5029
鄩 5028
褸 5027
臠 5026
肭 5025
眵 5024
玡 5023
犂 5022
氺 5021
廄 5020
㈣ 5019
┋ 5018
骟 5017
颃 5016
鎯 5015
諂 5014
瘥 5013
猃 5012
沘 5011
慓 5010
⒄ 5009
⒃ 5008
ད 5007
𫓧 5006
镦 5005
鈸 5004
矞 5003
盩 5002
梾 5001
巃 5000
嫠 4999
婬 4998
匂 4997
ㄝ 4996
𠈌 4995
馇 4994
鞬 4993
錤 4992
跂 4991
礓 4990
湴 4989
晛 4988
擯 4987
挌 4986
婑 4985
勔 4984
仂 4983
⼀ 4982
☘ 4981
¡ 4980
鹓 4979
躞 4978
踬 4977
蟯 4976
蓐 4975
菥 4974
瓟 4973
璸 4972
摽 4971
彟 4970
𬬻 4969
薾 4968
苅 4967
罥 4966
璥 4965
沇 4964
懐 4963
颥 4962
閦 4961
鄮 4960
趯 4959
賅 4958
衤 4957
茺 4956
澚 4955
枵 4954
懣 4953
囖 4952
俛 4951
❁ 4950
‛ 4949
鴆 4948
鳠 4947
颕 4946
镄 4945
譞 4944
誾 4943
蔌 4942
莶 4941
瓅 4940
琓 4939
澣 4938
戥 4937
冖 4936
𫚔 4935
😍 4934
輋 4933
绲 4932
簏 4931
澉 4930
搌 4929
悊 4928
䴘 4927
⒅ 4926
髢 4925
飡 4924
韮 4923
钔 4922
酴 4921
鄫 4920
荄 4919
肸 4918
礱 4917
獮 4916
滃 4915
桖 4914
晄 4913
攴 4912
嵝 4911
尜 4910
坫 4909
㚻 4908
┤ 4907
𩷶 4906
龁 4905
脁 4904
眅 4903
灃 4902
涘 4901
椄 4900
柟 4899
暪 4898
摅 4897
掎 4896
悃 4895
庴 4894
唃 4893
偰 4892
鋈 4891
銚 4890
郈 4889
艨 4888
羕 4887
櫈 4886
搨 4885
伷 4884
䴙 4883
┠ 4882
⒆ 4881
鸑 4880
韾 4879
邲 4878
蠑 4877
璲 4876
灤 4875
浼 4874
浵 4873
朶 4872
旛 4871
掊 4870
呪 4869
▄ 4868
阍 4867
锳 4866
酺 4865
穉 4864
禥 4863
瘅 4862
瑳 4861
咹 4860
冂 4859
偾 4858
騒 4857
閆 4856
絷 4855
痩 4854
洫 4853
榀 4852
晅 4851
慆 4850
嬬 4849
奵 4848
冁 4847
䴕 4846
‸ 4845
鏃 4844
谇 4843
讜 4842
菴 4841
耱 4840
禋 4839
欻 4838
楅 4837
棫 4836
梉 4835
昞 4834
弉 4833
寀 4832
墑 4831
厣 4830
བ 4829
ག 4828
𫊸 4827
髟 4826
頠 4825
葙 4824
芣 4823
脞 4822
獍 4821
汫 4820
柸 4819
掞 4818
夂 4817
傒 4816
仌 4815
😘 4814
顰 4813
锬 4812
紞 4811
糭 4810
漙 4809
堌 4808
伡 4807
➀ 4806
⑪ 4805
𨱇 4804
😭 4803
霅 4802
謮 4801
裉 4800
甓 4799
榼 4798
挢 4797
佖 4796
✩ 4795
╝ 4794
╗ 4793
∝ 4792
٩ 4791
魠 4790
鬪 4789
閟 4788
跽 4787
襤 4786
脬 4785
緙 4784
畷 4783
涴 4782
椙 4781
摛 4780
媔 4779
℉ 4778
🔴 4777
髈 4776
镃 4775
鍱 4774
訏 4773
蕸 4772
葎 4771
糀 4770
溎 4769
櫓 4768
昫 4767
懃 4766
奡 4765
墕 4764
丬 4763
ㄠ 4762
➁ 4761
┍ 4760
≖ 4759
﹢ 4758
黁 4757
鴒 4756
鐔 4755
芼 4754
臯 4753
缍 4752
秏 4751
碡 4750
硭 4749
砳 4748
淍 4747
洊 4746
戓 4745
怳 4744
凵 4743
冚 4742
佀 4741
亠 4740
︻ 4739
鸺 4738
鄗 4737
腙 4736
耑 4735
羙 4734
絛 4733
瘳 4732
猋 4731
焠 4730
櫎 4729
崒 4728
婞 4727
塋 4726
哷 4725
⊕ 4724
鴝 4723
鲾 4722
颋 4721
輦 4720
讃 4719
蔾 4718
煴 4717
滆 4716
杕 4715
昡 4714
垞 4713
兎 4712
◐ 4711
鳑 4710
鲙 4709
飐 4708
铦 4707
鐙 4706
鏜 4705
遯 4704
蹌 4703
簰 4702
眜 4701
瑆 4700
焌 4699
濆 4698
庳 4697
嵫 4696
崠 4695
屛 4694
偑 4693
⚡ 4692
☏ 4691
ʔ 4690
齧 4689
茝 4688
脤 4687
綷 4686
眚 4685
瘉 4684
攆 4683
垍 4682
儍 4681
➢ 4680
馘 4679
饜 4678
躕 4677
曺 4676
塤 4675
匜 4674
劓 4673
乸 4672
▣ 4671
ས 4670
驄 4669
馱 4668
閰 4667
缧 4666
瘐 4665
煃 4664
氬 4663
岠 4662
厰 4661
亽 4660
鳣 4659
鯢 4658
騋 4657
鞴 4656
鋬 4655
鈜 4654
裼 4653
芠 4652
翬 4651
矼 4650
溞 4649
渰 4648
渖 4647
捽 4646
愒 4645
宄 4644
埻 4643
ན 4642
👆 4641
🎉 4640
龆 4639
麤 4638
魽 4637
駸 4636
軚 4635
赙 4634
覅 4633
襜 4632
羗 4631
綎 4630
笱 4629
禘 4628
磾 4627
疎 4626
淛 4625
惔 4624
儁 4623
倞 4622
䓕 4621
◉ 4620
𫔍 4619
🔹 4618
鱻 4617
鍌 4616
碹 4615
睱 4614
瀌 4613
檉 4612
槚 4611
棓 4610
暋 4609
挻 4608
幃 4607
巣 4606
嚧 4605
亼 4604
ˑ 4603
𫘧 4602
鳡 4601
鲏 4600
魆 4599
驎 4598
饩 4597
雃 4596
裛 4595
缌 4594
穸 4593
碕 4592
狌 4591
犏 4590
滈 4589
壈 4588
♛ 4587
鶺 4586
鶇 4585
鵺 4584
鑪 4583
謫 4582
觿 4581
蝪 4580
祤 4579
槔 4578
昄 4577
懽 4576
徧 4575
庛 4574
骱 4573
锞 4572
酦 4571
鄀 4570
蓨 4569
爝 4568
枏 4567
戩 4566
慬 4565
嶢 4564
嵚 4563
岕 4562
尥 4561
奀 4560
嗏 4559
✌ 4558
≌ 4557
⇔ 4556
鳧 4555
隄 4554
銶 4553
酾 4552
謳 4551
萶 4550
籺 4549
楗 4548
憺 4547
嵕 4546
屘 4545
啍 4544
儺 4543
儐 4542
𫊻 4541
貎 4540
粞 4539
穏 4538
溁 4537
泃 4536
枬 4535
啹 4534
吤 4533
儻 4532
僦 4531
▐ 4530
𪻺 4529
醂 4528
賛 4527
觳 4526
覩 4525
蝻 4524
绁 4523
紱 4522
瑧 4521
獚 4520
潯 4519
洢 4518
槱 4517
暤 4516
挒 4515
拶 4514
惛 4513
廴 4512
勣 4511
伾 4510
✘ 4509
þ 4508
鱲 4507
鰶 4506
铓 4505
赪 4504
詁 4503
緈 4502
簖 4501
汚 4500
欓 4499
楩 4498
晊 4497
巪 4496
塲 4495
埖 4494
垿 4493
啙 4492
‼ 4491
🔻 4490
齤 4489
鬄 4488
锸 4487
諼 4486
蒉 4485
芏 4484
緲 4483
窋 4482
礞 4481
皛 4480
瑫 4479
櫺 4478
挼 4477
侁 4476
♔ 4475
韱 4474
靐 4473
鋉 4472
舁 4471
縵 4470
漧 4469
湑 4468
悧 4467
屻 4466
夨 4465
嚢 4464
喼 4463
僂 4462
䱛 4461
ར 4460
𪢠 4459
黡 4458
鹠 4457
鯷 4456
饦 4455
鑨 4454
裰 4453
蝘 4452
葰 4451
绹 4450
盷 4449
瑨 4448
橚 4447
弐 4446
墺 4445
坬 4444
䓨 4443
⑫ 4442
靫 4441
酤 4440
蹍 4439
菋 4438
莣 4437
甴 4436
棡 4435
梱 4434
懍 4433
岺 4432
⬆ 4431
➂ 4430
┛ 4429
😳 4428
😜 4427
鮻 4426
迵 4425
蹐 4424
譔 4423
觃 4422
蜾 4421
缋 4420
篯 4419
祊 4418
濙 4417
湋 4416
洰 4415
泙 4414
欏 4413
朥 4412
朏 4411
旵 4410
斕 4409
戯 4408
崄 4407
塯 4406
叧 4405
㭎 4404
⒒ 4403
༎ 4402
˘ 4401
🌟 4400
￢ 4399
龖 4398
鯁 4397
闞 4396
锖 4395
锍 4394
鎡 4393
銧 4392
輜 4391
跐 4390
賚 4389
莙 4388
荅 4387
茞 4386
臑 4385
竝 4384
甁 4383
瑑 4382
猄 4381
殪 4380
檡 4379
嶔 4378
傜 4377
倀 4376
鮸 4375
鬶 4374
驁 4373
騧 4372
鑴 4371
轹 4370
蕡 4369
縢 4368
綰 4367
礵 4366
瑸 4365
湼 4364
泂 4363
椏 4362
梂 4361
孒 4360
嫽 4359
圊 4358
嗱 4357
厙 4356
镴 4355
锊 4354
鋯 4353
葼 4352
茇 4351
紥 4350
籹 4349
瑅 4348
爇 4347
烋 4346
椥 4345
椆 4344
廡 4343
塙 4342
兗 4341
佧 4340
㮾 4339
✡ 4338
骍 4337
陴 4336
蝀 4335
罝 4334
绋 4333
纩 4332
筴 4331
汸 4330
汏 4329
櫆 4328
恏 4327
尒 4326
娡 4325
◾ 4324
鳁 4323
鋏 4322
荙 4321
苠 4320
芄 4319
臁 4318
耪 4317
缏 4316
祹 4315
睍 4314
澁 4313
潏 4312
榶 4311
榥 4310
恓 4309
噚 4308
ㄙ 4307
┕ 4306
鰤 4305
髆 4304
輮 4303
褧 4302
緜 4301
糥 4300
穚 4299
璹 4298
瑮 4297
熥 4296
柾 4295
姶 4294
塀 4293
哿 4292
厷 4291
㐷 4290
ㄦ 4289
ⅻ 4288
𫗧 4287
𦈡 4286
鯡 4285
阼 4284
耹 4283
榚 4282
楛 4281
杬 4280
擐 4279
掱 4278
媬 4277
坰 4276
⒓ 4275
雊 4274
釪 4273
鄹 4272
辒 4271
躔 4270
跘 4269
讖 4268
蟪 4267
薺 4266
絪 4265
砩 4264
瘛 4263
猓 4262
烇 4261
曚 4260
揲 4259
懨 4258
媭 4257
媠 4256
坋 4255
噉 4254
噈 4253
哊 4252
咢 4251
➔ 4250
❼ 4249
✯ 4248
✟ 4247
╃ 4246
😱 4245
👏 4244
韘 4243
鄴 4242
諛 4241
蟌 4240
胠 4239
窆 4238
碥 4237
砅 4236
畧 4235
甃 4234
琡 4233
珒 4232
澭 4231
漵 4230
氳 4229
桲 4228
曁 4227
屇 4226
姸 4225
壙 4224
嗍 4223
啅 4222
哬 4221
呡 4220
厐 4219
卨 4218
┴ 4217
鿔 4216
锼 4215
醰 4214
蛑 4213
纚 4212
磄 4211
碻 4210
玊 4209
烱 4208
洭 4207
敫 4206
彜 4205
壂 4204
嗐 4203
刭 4202
冧 4201
侓 4200
䇲 4199
㎝ 4198
ㄖ 4197
ㄑ 4196
❄ 4195
┝ 4194
ⅺ 4193
э 4192
𨱏 4191
鬑 4190
釹 4189
羮 4188
紝 4187
粬 4186
筩 4185
瘵 4184
珌 4183
淂 4182
沋 4181
歭 4180
憓 4179
彐 4178
娀 4177
妧 4176
奼 4175
埆 4174
冭 4173
⊹ 4172
ю 4171
𫚕 4170
𦛨 4169
鏍 4168
鉆 4167
蹧 4166
褎 4165
螠 4164
苊 4163
臜 4162
筰 4161
睆 4160
盌 4159
牋 4158
熀 4157
澴 4156
淓 4155
毵 4154
椠 4153
梔 4152
扽 4151
憟 4150
娒 4149
墼 4148
坮 4147
勹 4146
䴓 4145
┻ 4144
🎁 4143
🍓 4142
齮 4141
鹢 4140
鶵 4139
鬰 4138
鬐 4137
騄 4136
鉨 4135
釔 4134
輶 4133
荵 4132
耔 4131
羖 4130
筦 4129
痳 4128
甿 4127
焞 4126
榤 4125
棤 4124
朲 4123
朩 4122
暊 4121
掭 4120
廵 4119
庝 4118
庒 4117
娍 4116
墈 4115
垯 4114
僎 4113
亅 4112
乊 4111
㩲 4110
㊙ 4109
⼈ 4108
‡ 4107
ъ 4106
😃 4105
鞲 4104
闓 4103
铹 4102
鎣 4101
郙 4100
辵 4099
綣 4098
篽 4097
磈 4096
琁 4095
搢 4094
抋 4093
屭 4092
喓 4091
俤 4090
仚 4089
ㄓ 4088
✚ 4087
ლ 4086
¶ 4085
𫏋 4084
鋙 4083
鉭 4082
踭 4081
襣 4080
蟈 4079
芤 4078
琸 4077
灜 4076
湝 4075
淶 4074
樻 4073
搿 4072
扙 4071
慇 4070
惪 4069
惢 4068
嶒 4067
厾 4066
┳ 4065
⒔ 4064
⊂ 4063
ಠ 4062
😏 4061
鼒 4060
鴈 4059
镋 4058
鑷 4057
錬 4056
鉸 4055
釙 4054
趖 4053
蛺 4052
舡 4051
絺 4050
粍 4049
籙 4048
箘 4047
祅 4046
畎 4045
瑺 4044
枒 4043
擗 4042
巌 4041
嬝 4040
堔 4039
呬 4038
俢 4037
亾 4036
ㄈ 4035
ぅ 4034
╲ 4033
‟ 4032
鶏 4031
酔 4030
鄤 4029
邅 4028
辀 4027
蘂 4026
芧 4025
縹 4024
糈 4023
籥 4022
窬 4021
狯 4020
狓 4019
潕 4018
氍 4017
殽 4016
枡 4015
暍 4014
攮 4013
乇 4012
䱵 4011
┨ 4010
۶ 4009
😀 4008
騑 4007
銎 4006
鈡 4005
鈙 4004
迕 4003
螗 4002
虼 4001
虍 4000
蕅 3999
荮 3998
纞 3997
筯 3996
灀 3995
浿 3994
斿 3993
敻 3992
哳 3991
吅 3990
凎 3989
俌 3988
㈤ 3987
ㄐ 3986
🎀 3985
鶱 3984
鱙 3983
鰣 3982
逌 3981
袮 3980
荈 3979
芐 3978
臝 3977
痃 3976
狆 3975
熇 3974
滧 3973
汖 3972
暁 3971
摠 3970
搲 3969
悳 3968
彛 3967
帀 3966
嬡 3965
娸 3964
哃 3963
劂 3962
䝙 3961
㎏ 3960
⭐ 3959
▸ 3958
┲ 3957
⑬ 3956
𫚐 3955
驵 3954
鎝 3953
譓 3952
詟 3951
裣 3950
璂 3949
玿 3948
玼 3947
拃 3946
寖 3945
剺 3944
✉ 3943
╋ 3942
𫚢 3941
🐰 3940
🍉 3939
藴 3938
薗 3937
瑒 3936
琫 3935
熯 3934
灕 3933
灈 3932
泆 3931
檑 3930
斸 3929
憭 3928
弶 3927
姽 3926
妚 3925
傋 3924
䲠 3923
▾ 3922
⇩ 3921
¦ 3920
𡒉 3919
鐡 3918
醑 3917
迮 3916
跼 3915
讌 3914
蜎 3913
粨 3912
硿 3911
硁 3910
瞢 3909
椝 3908
椑 3907
擫 3906
抅 3905
廐 3904
崱 3903
崘 3902
岍 3901
嬶 3900
婥 3899
堭 3898
垺 3897
僞 3896
伬 3895
㧑 3894
⼤ 3893
◮ 3892
┥ 3891
⇧ 3890
𩠌 3889
🙈 3888
🔼 3887
铘 3886
錛 3885
鉎 3884
诪 3883
褭 3882
褕 3881
裇 3880
虉 3879
葇 3878
菼 3877
芢 3876
臞 3875
羴 3874
羱 3873
绖 3872
纕 3871
稓 3870
玶 3869
熿 3868
晪 3867
攽 3866
揑 3865
惓 3864
崍 3863
唪 3862
呣 3861
叐 3860
叇 3859
♚ 3858
𫟼 3857
🐶 3856
麃 3855
飔 3854
顕 3853
陁 3852
醭 3851
趑 3850
讎 3849
藸 3848
蔀 3847
蒍 3846
苭 3845
艶 3844
糎 3843
箑 3842
矉 3841
瞾 3840
瞵 3839
爕 3838
氕 3837
殑 3836
檵 3835
槇 3834
暅 3833
旡 3832
撝 3831
拑 3830
惲 3829
崿 3828
尞 3827
婻 3826
墎 3825
圇 3824
佡 3823
㦃 3822
ㄜ 3821
ㄘ 3820
〤 3819
ℓ 3818
𬭊 3817
🔺 3816
鳆 3815
鯪 3814
馎 3813
阨 3812
觱 3811
蘽 3810
蓳 3809
蓢 3808
蒄 3807
聼 3806
羋 3805
籾 3804
禨 3803
矴 3802
盝 3801
牮 3800
槡 3799
棁 3798
杧 3797
昽 3796
廰 3795
奨 3794
咴 3793
➙ 3792
⁕ 3791
𫚪 3790
﹥ 3789
鯭 3788
鍑 3787
鉍 3786
輥 3785
趱 3784
褉 3783
臈 3782
簗 3781
篋 3780
矅 3779
畵 3778
璮 3777
瑔 3776
爚 3775
洿 3774
暕 3773
攲 3772
愽 3771
嵣 3770
姃 3769
僔 3768
傺 3767
倗 3766
♞ 3765
⊆ 3764
⁾ 3763
ʕ 3762
𫉄 3761
𤞤 3760
鯻 3759
飮 3758
雝 3757
鐤 3756
鏸 3755
錀 3754
醵 3753
輗 3752
诖 3751
裿 3750
虵 3749
菻 3748
羾 3747
繾 3746
筘 3745
磜 3744
砉 3743
瞀 3742
癎 3741
璵 3740
珤 3739
淐 3738
涆 3737
泝 3736
沲 3735
櫍 3734
梩 3733
桯 3732
旪 3731
嶶 3730
嶗 3729
姤 3728
坧 3727
囬 3726
噯 3725
嘥 3724
呺 3723
僝 3722
䍁 3721
ㄗ 3720
ㄊ 3719
♈ 3718
⑭ 3717
😝 3716
鷓 3715
鲒 3714
鱬 3713
鱇 3712
餸 3711
韙 3710
雱 3709
铏 3708
鐿 3707
鍜 3706
鉋 3705
遡 3704
蝂 3703
荎 3702
芛 3701
絭 3700
糇 3699
籣 3698
砫 3697
砘 3696
甽 3695
玍 3694
灊 3693
湦 3692
湠 3691
渓 3690
涫 3689
樉 3688
榍 3687
棽 3686
敩 3685
撖 3684
惝 3683
恝 3682
帱 3681
巭 3680
嵂 3679
岦 3678
尨 3677
嬾 3676
嫥 3675
嚩 3674
嘡 3673
喩 3672
偪 3671
䱻 3670
⽣ 3669
⭕ 3668
➃ 3667
⁽ 3666
𫄸 3665
𣴓 3664
鸂 3663
鳒 3662
骹 3661
隂 3660
闶 3659
锠 3658
钘 3657
銙 3656
鈹 3655
邐 3654
貐 3653
褘 3652
衖 3651
萚 3650
莤 3649
莔 3648
艴 3647
秬 3646
祃 3645
磝 3644
癘 3643
癈 3642
焿 3641
渶 3640
浟 3639
泇 3638
汌 3637
榑 3636
椛 3635
桭 3634
擿 3633
怊 3632
尭 3631
嫋 3630
埶 3629
嚙 3628
唼 3627
唊 3626
❗ 3625
¿ 3624
🙏 3623
👀 3622
鵩 3621
鴣 3620
鳈 3619
霂 3618
鉌 3617
鈄 3616
酖 3615
轘 3614
躶 3613
謅 3612
訁 3611
蓯 3610
箢 3609
筎 3608
禖 3607
眘 3606
疕 3605
甏 3604
珎 3603
牀 3602
潓 3601
漖 3600
溻 3599
溚 3598
沴 3597
毹 3596
橞 3595
榦 3594
挿 3593
挐 3592
拝 3591
扡 3590
徫 3589
峘 3588
囮 3587
嗻 3586
哱 3585
咺 3584
卌 3583
俍 3582
佁 3581
ㄕ 3580
✫ 3579
⚠ 3578
⁎ 3577
ཀ 3576
💕 3575
👈 3574
︹ 3573
鹙 3572
驌 3571
饾 3570
鞡 3569
鞆 3568
鉧 3567
讒 3566
蛯 3565
薆 3564
莕 3563
茘 3562
翽 3561
縦 3560
糛 3559
粃 3558
箒 3557
筳 3556
畾 3555
璺 3554
瑲 3553
澙 3552
洚 3551
檊 3550
柦 3549
杇 3548
曕 3547
愨 3546
帡 3545
壱 3544
堈 3543
喕 3542
咵 3541
冄 3540
傌 3539
ㄔ 3538
∆ 3537
∂ 3536
¾ 3535
##畿 3534
##疆 3533
##疇 3532
##疊 3531
##疏 3530
##疑 3529
##疔 3528
##疖 3527
##疗 3526
##疙 3525
##疚 3524
##疝 3523
##疟 3522
##疡 3521
##疣 3520
##疤 3519
##疥 3518
##疫 3517
##疮 3516
##疯 3515
##疱 3514
##疲 3513
##疳 3512
##疵 3511
##疸 3510
##疹 3509
##疼 3508
##疽 3507
##疾 3506
##痂 3505
##病 3504
##症 3503
##痈 3502
##痉 3501
##痊 3500
##痍 3499
##痒 3498
##痔 3497
##痕 3496
##痘 3495
##痙 3494
##痛 3493
##痞 3492
##痠 3491
##痢 3490
##痣 3489
##痤 3488
##痧 3487
##痨 3486
##痪 3485
##痫 3484
##痰 3483
##痱 3482
##痴 3481
##痹 3480
##痺 3479
##痼 3478
##痿 3477
##瘀 3476
##瘁 3475
##瘋 3474
##瘍 3473
##瘓 3472
##瘘 3471
##瘙 3470
##瘟 3469
##瘠 3468
##瘡 3467
##瘢 3466
##瘤 3465
##瘦 3464
##瘧 3463
##瘩 3462
##瘪 3461
##瘫 3460
##瘴 3459
##瘸 3458
##瘾 3457
##療 3456
##癇 3455
##癌 3454
##癒 3453
##癖 3452
##癜 3451
##癞 3450
##癡 3449
##癢 3448
##癣 3447
##癥 3446
##癫 3445
##癬 3444
##癮 3443
##癱 3442
##癲 3441
##癸 3440
##発 3439
##登 3438
##發 3437
##白 3436
##百 3435
##皂 3434
##的 3433
##皆 3432
##皇 3431
##皈 3430
##皋 3429
##皎 3428
##皑 3427
##皓 3426
##皖 3425
##皙 3424
##皚 3423
##皮 3422
##皰 3421
##皱 3420
##皴 3419
##皺 3418
##皿 3417
##盂 3416
##盃 3415
##盅 3414
##盆 3413
##盈 3412
##益 3411
##盎 3410
##盏 3409
##盐 3408
##监 3407
##盒 3406
##盔 3405
##盖 3404
##盗 3403
##盘 3402
##盛 3401
##盜 3400
##盞 3399
##盟 3398
##盡 3397
##監 3396
##盤 3395
##盥 3394
##盧 3393
##盪 3392
##目 3391
##盯 3390
##盱 3389
##盲 3388
##直 3387
##相 3386
##盹 3385
##盼 3384
##盾 3383
##省 3382
##眈 3381
##眉 3380
##看 3379
##県 3378
##眙 3377
##眞 3376
##真 3375
##眠 3374
##眦 3373
##眨 3372
##眩 3371
##眯 3370
##眶 3369
##眷 3368
##眸 3367
##眺 3366
##眼 3365
##眾 3364
##着 3363
##睁 3362
##睇 3361
##睏 3360
##睐 3359
##睑 3358
##睛 3357
##睜 3356
##睞 3355
##睡 3354
##睢 3353
##督 3352
##睥 3351
##睦 3350
##睨 3349
##睪 3348
##睫 3347
##睬 3346
##睹 3345
##睽 3344
##睾 3343
##睿 3342
##瞄 3341
##瞅 3340
##瞇 3339
##瞋 3338
##瞌 3337
##瞎 3336
##瞑 3335
##瞒 3334
##瞓 3333
##瞞 3332
##瞟 3331
##瞠 3330
##瞥 3329
##瞧 3328
##瞩 3327
##瞪 3326
##瞬 3325
##瞭 3324
##瞰 3323
##瞳 3322
##瞻 3321
##瞼 3320
##瞿 3319
##矇 3318
##矍 3317
##矗 3316
##矚 3315
##矛 3314
##矜 3313
##矢 3312
##矣 3311
##知 3310
##矩 3309
##矫 3308
##短 3307
##矮 3306
##矯 3305
##石 3304
##矶 3303
##矽 3302
##矾 3301
##矿 3300
##码 3299
##砂 3298
##砌 3297
##砍 3296
##砒 3295
##研 3294
##砖 3293
##砗 3292
##砚 3291
##砝 3290
##砣 3289
##砥 3288
##砧 3287
##砭 3286
##砰 3285
##砲 3284
##破 3283
##砷 3282
##砸 3281
##砺 3280
##砼 3279
##砾 3278
##础 3277
##硅 3276
##硐 3275
##硒 3274
##硕 3273
##硝 3272
##硫 3271
##硬 3270
##确 3269
##硯 3268
##硼 3267
##碁 3266
##碇 3265
##碉 3264
##碌 3263
##碍 3262
##碎 3261
##碑 3260
##碓 3259
##碗 3258
##碘 3257
##碚 3256
##碛 3255
##碟 3254
##碣 3253
##碧 3252
##碩 3251
##碰 3250
##碱 3249
##碳 3248
##碴 3247
##確 3246
##碼 3245
##碾 3244
##磁 3243
##磅 3242
##磊 3241
##磋 3240
##磐 3239
##磕 3238
##磚 3237
##磡 3236
##磨 3235
##磬 3234
##磯 3233
##磲 3232
##磷 3231
##磺 3230
##礁 3229
##礎 3228
##礙 3227
##礡 3226
##礦 3225
##礪 3224
##礫 3223
##礴 3222
##示 3221
##礼 3220
##社 3219
##祀 3218
##祁 3217
##祂 3216
##祇 3215
##祈 3214
##祉 3213
##祎 3212
##祐 3211
##祕 3210
##祖 3209
##祗 3208
##祚 3207
##祛 3206
##祜 3205
##祝 3204
##神 3203
##祟 3202
##祠 3201
##祢 3200
##祥 3199
##票 3198
##祭 3197
##祯 3196
##祷 3195
##祸 3194
##祺 3193
##祿 3192
##禀 3191
##禁 3190
##禄 3189
##禅 3188
##禍 3187
##禎 3186
##福 3185
##禛 3184
##禦 3183
##禧 3182
##禪 3181
##禮 3180
##禱 3179
##禹 3178
##禺 3177
##离 3176
##禽 3175
##禾 3174
##禿 3173
##秀 3172
##私 3171
##秃 3170
##秆 3169
##秉 3168
##秋 3167
##种 3166
##科 3165
##秒 3164
##秘 3163
##租 3162
##秣 3161
##秤 3160
##秦 3159
##秧 3158
##秩 3157
##秭 3156
##积 3155
##称 3154
##秸 3153
##移 3152
##秽 3151
##稀 3150
##稅 3149
##程 3148
##稍 3147
##税 3146
##稔 3145
##稗 3144
##稚 3143
##稜 3142
##稞 3141
##稟 3140
##稠 3139
##稣 3138
##種 3137
##稱 3136
##稲 3135
##稳 3134
##稷 3133
##稹 3132
##稻 3131
##稼 3130
##稽 3129
##稿 3128
##穀 3127
##穂 3126
##穆 3125
##穌 3124
##積 3123
##穎 3122
##穗 3121
##穢 3120
##穩 3119
##穫 3118
##穴 3117
##究 3116
##穷 3115
##穹 3114
##空 3113
##穿 3112
##突 3111
##窃 3110
##窄 3109
##窈 3108
##窍 3107
##窑 3106
##窒 3105
##窓 3104
##窕 3103
##窖 3102
##窗 3101
##窘 3100
##窜 3099
##窝 3098
##窟 3097
##窠 3096
##窥 3095
##窦 3094
##窨 3093
##窩 3092
##窪 3091
##窮 3090
##窯 3089
##窺 3088
##窿 3087
##竄 3086
##竅 3085
##竇 3084
##竊 3083
##立 3082
##竖 3081
##站 3080
##竜 3079
##竞 3078
##竟 3077
##章 3076
##竣 3075
##童 3074
##竭 3073
##端 3072
##競 3071
##竹 3070
##竺 3069
##竽 3068
##竿 3067
##笃 3066
##笆 3065
##笈 3064
##笋 3063
##笏 3062
##笑 3061
##笔 3060
##笙 3059
##笛 3058
##笞 3057
##笠 3056
##符 3055
##笨 3054
##第 3053
##笹 3052
##笺 3051
##笼 3050
##筆 3049
##等 3048
##筊 3047
##筋 3046
##筍 3045
##筏 3044
##筐 3043
##筑 3042
##筒 3041
##答 3040
##策 3039
##筛 3038
##筝 3037
##筠 3036
##筱 3035
##筲 3034
##筵 3033
##筷 3032
##筹 3031
##签 3030
##简 3029
##箇 3028
##箋 3027
##箍 3026
##箏 3025
##箐 3024
##箔 3023
##箕 3022
##算 3021
##箝 3020
##管 3019
##箩 3018
##箫 3017
##箭 3016
##箱 3015
##箴 3014
##箸 3013
##節 3012
##篁 3011
##範 3010
##篆 3009
##篇 3008
##築 3007
##篑 3006
##篓 3005
##篙 3004
##篝 3003
##篠 3002
##篡 3001
##篤 3000
##篩 2999
##篪 2998
##篮 2997
##篱 2996
##篷 2995
##簇 2994
##簌 2993
##簍 2992
##簡 2991
##簦 2990
##簧 2989
##簪 2988
##簫 2987
##簷 2986
##簸 2985
##簽 2984
##簾 2983
##簿 2982
##籁 2981
##籃 2980
##籌 2979
##籍 2978
##籐 2977
##籟 2976
##籠 2975
##籤 2974
##籬 2973
##籮 2972
##籲 2971
##米 2970
##类 2969
##籼 2968
##籽 2967
##粄 2966
##粉 2965
##粑 2964
##粒 2963
##粕 2962
##粗 2961
##粘 2960
##粟 2959
##粤 2958
##粥 2957
##粧 2956
##粪 2955
##粮 2954
##粱 2953
##粲 2952
##粳 2951
##粵 2950
##粹 2949
##粼 2948
##粽 2947
##精 2946
##粿 2945
##糅 2944
##糊 2943
##糍 2942
##糕 2941
##糖 2940
##糗 2939
##糙 2938
##糜 2937
##糞 2936
##糟 2935
##糠 2934
##糧 2933
##糬 2932
##糯 2931
##糰 2930
##糸 2929
##系 2928
##糾 2927
##紀 2926
##紂 2925
##約 2924
##紅 2923
##紉 2922
##紊 2921
##紋 2920
##納 2919
##紐 2918
##紓 2917
##純 2916
##紗 2915
##紘 2914
##紙 2913
##級 2912
##紛 2911
##紜 2910
##素 2909
##紡 2908
##索 2907
##紧 2906
##紫 2905
##紮 2904
##累 2903
##細 2902
##紳 2901
##紹 2900
##紺 2899
##終 2898
##絃 2897
##組 2896
##絆 2895
##経 2894
##結 2893
##絕 2892
##絞 2891
##絡 2890
##絢 2889
##給 2888
##絨 2887
##絮 2886
##統 2885
##絲 2884
##絳 2883
##絵 2882
##絶 2881
##絹 2880
##綁 2879
##綏 2878
##綑 2877
##經 2876
##継 2875
##続 2874
##綜 2873
##綠 2872
##綢 2871
##綦 2870
##綫 2869
##綬 2868
##維 2867
##綱 2866
##網 2865
##綴 2864
##綵 2863
##綸 2862
##綺 2861
##綻 2860
##綽 2859
##綾 2858
##綿 2857
##緊 2856
##緋 2855
##総 2854
##緑 2853
##緒 2852
##緘 2851
##線 2850
##緝 2849
##緞 2848
##締 2847
##緣 2846
##編 2845
##緩 2844
##緬 2843
##緯 2842
##練 2841
##緹 2840
##緻 2839
##縁 2838
##縄 2837
##縈 2836
##縛 2835
##縝 2834
##縣 2833
##縫 2832
##縮 2831
##縱 2830
##縴 2829
##縷 2828
##總 2827
##績 2826
##繁 2825
##繃 2824
##繆 2823
##繇 2822
##繋 2821
##織 2820
##繕 2819
##繚 2818
##繞 2817
##繡 2816
##繩 2815
##繪 2814
##繫 2813
##繭 2812
##繳 2811
##繹 2810
##繼 2809
##繽 2808
##纂 2807
##續 2806
##纍 2805
##纏 2804
##纓 2803
##纔 2802
##纖 2801
##纜 2800
##纠 2799
##红 2798
##纣 2797
##纤 2796
##约 2795
##级 2794
##纨 2793
##纪 2792
##纫 2791
##纬 2790
##纭 2789
##纯 2788
##纰 2787
##纱 2786
##纲 2785
##纳 2784
##纵 2783
##纶 2782
##纷 2781
##纸 2780
##纹 2779
##纺 2778
##纽 2777
##纾 2776
##线 2775
##绀 2774
##练 2773
##组 2772
##绅 2771
##细 2770
##织 2769
##终 2768
##绊 2767
##绍 2766
##绎 2765
##经 2764
##绑 2763
##绒 2762
##结 2761
##绔 2760
##绕 2759
##绘 2758
##给 2757
##绚 2756
##绛 2755
##络 2754
##绝 2753
##绞 2752
##统 2751
##绡 2750
##绢 2749
##绣 2748
##绥 2747
##绦 2746
##继 2745
##绩 2744
##绪 2743
##绫 2742
##续 2741
##绮 2740
##绯 2739
##绰 2738
##绳 2737
##维 2736
##绵 2735
##绶 2734
##绷 2733
##绸 2732
##绻 2731
##综 2730
##绽 2729
##绾 2728
##绿 2727
##缀 2726
##缄 2725
##缅 2724
##缆 2723
##缇 2722
##缈 2721
##缉 2720
##缎 2719
##缓 2718
##缔 2717
##缕 2716
##编 2715
##缘 2714
##缙 2713
##缚 2712
##缜 2711
##缝 2710
##缠 2709
##缢 2708
##缤 2707
##缥 2706
##缨 2705
##缩 2704
##缪 2703
##缭 2702
##缮 2701
##缰 2700
##缱 2699
##缴 2698
##缸 2697
##缺 2696
##缽 2695
##罂 2694
##罄 2693
##罌 2692
##罐 2691
##网 2690
##罔 2689
##罕 2688
##罗 2687
##罚 2686
##罡 2685
##罢 2684
##罩 2683
##罪 2682
##置 2681
##罰 2680
##署 2679
##罵 2678
##罷 2677
##罹 2676
##羁 2675
##羅 2674
##羈 2673
##羊 2672
##羌 2671
##美 2670
##羔 2669
##羚 2668
##羞 2667
##羟 2666
##羡 2665
##羣 2664
##群 2663
##羥 2662
##羧 2661
##羨 2660
##義 2659
##羯 2658
##羲 2657
##羸 2656
##羹 2655
##羽 2654
##羿 2653
##翁 2652
##翅 2651
##翊 2650
##翌 2649
##翎 2648
##習 2647
##翔 2646
##翘 2645
##翟 2644
##翠 2643
##翡 2642
##翦 2641
##翩 2640
##翰 2639
##翱 2638
##翳 2637
##翹 2636
##翻 2635
##翼 2634
##耀 2633
##老 2632
##考 2631
##耄 2630
##者 2629
##耆 2628
##耋 2627
##而 2626
##耍 2625
##耐 2624
##耒 2623
##耕 2622
##耗 2621
##耘 2620
##耙 2619
##耦 2618
##耨 2617
##耳 2616
##耶 2615
##耷 2614
##耸 2613
##耻 2612
##耽 2611
##耿 2610
##聂 2609
##聆 2608
##聊 2607
##聋 2606
##职 2605
##聒 2604
##联 2603
##聖 2602
##聘 2601
##聚 2600
##聞 2599
##聪 2598
##聯 2597
##聰 2596
##聲 2595
##聳 2594
##聴 2593
##聶 2592
##職 2591
##聽 2590
##聾 2589
##聿 2588
##肃 2587
##肄 2586
##肅 2585
##肆 2584
##肇 2583
##肉 2582
##肋 2581
##肌 2580
##肏 2579
##肓 2578
##肖 2577
##肘 2576
##肚 2575
##肛 2574
##肝 2573
##肠 2572
##股 2571
##肢 2570
##肤 2569
##肥 2568
##肩 2567
##肪 2566
##肮 2565
##肯 2564
##肱 2563
##育 2562
##肴 2561
##肺 2560
##肽 2559
##肾 2558
##肿 2557
##胀 2556
##胁 2555
##胃 2554
##胄 2553
##胆 2552
##背 2551
##胍 2550
##胎 2549
##胖 2548
##胚 2547
##胛 2546
##胜 2545
##胝 2544
##胞 2543
##胡 2542
##胤 2541
##胥 2540
##胧 2539
##胫 2538
##胭 2537
##胯 2536
##胰 2535
##胱 2534
##胳 2533
##胴 2532
##胶 2531
##胸 2530
##胺 2529
##能 2528
##脂 2527
##脅 2526
##脆 2525
##脇 2524
##脈 2523
##脉 2522
##脊 2521
##脍 2520
##脏 2519
##脐 2518
##脑 2517
##脓 2516
##脖 2515
##脘 2514
##脚 2513
##脛 2512
##脣 2511
##脩 2510
##脫 2509
##脯 2508
##脱 2507
##脲 2506
##脳 2505
##脸 2504
##脹 2503
##脾 2502
##腆 2501
##腈 2500
##腊 2499
##腋 2498
##腌 2497
##腎 2496
##腐 2495
##腑 2494
##腓 2493
##腔 2492
##腕 2491
##腥 2490
##腦 2489
##腩 2488
##腫 2487
##腭 2486
##腮 2485
##腰 2484
##腱 2483
##腳 2482
##腴 2481
##腸 2480
##腹 2479
##腺 2478
##腻 2477
##腼 2476
##腾 2475
##腿 2474
##膀 2473
##膈 2472
##膊 2471
##膏 2470
##膑 2469
##膘 2468
##膚 2467
##膛 2466
##膜 2465
##膝 2464
##膠 2463
##膦 2462
##膨 2461
##膩 2460
##膳 2459
##膺 2458
##膻 2457
##膽 2456
##膾 2455
##膿 2454
##臀 2453
##臂 2452
##臃 2451
##臆 2450
##臉 2449
##臊 2448
##臍 2447
##臓 2446
##臘 2445
##臟 2444
##臣 2443
##臥 2442
##臧 2441
##臨 2440
##自 2439
##臬 2438
##臭 2437
##至 2436
##致 2435
##臺 2434
##臻 2433
##臼 2432
##臾 2431
##舀 2430
##舂 2429
##舅 2428
##舆 2427
##與 2426
##興 2425
##舉 2424
##舊 2423
##舌 2422
##舍 2421
##舎 2420
##舐 2419
##舒 2418
##舔 2417
##舖 2416
##舗 2415
##舛 2414
##舜 2413
##舞 2412
##舟 2411
##航 2410
##舫 2409
##般 2408
##舰 2407
##舱 2406
##舵 2405
##舶 2404
##舷 2403
##舸 2402
##船 2401
##舺 2400
##舾 2399
##艇 2398
##艋 2397
##艘 2396
##艙 2395
##艦 2394
##艮 2393
##良 2392
##艰 2391
##艱 2390
##色 2389
##艳 2388
##艷 2387
##艹 2386
##艺 2385
##艾 2384
##节 2383
##芃 2382
##芈 2381
##芊 2380
##芋 2379
##芍 2378
##芎 2377
##芒 2376
##芙 2375
##芜 2374
##芝 2373
##芡 2372
##芥 2371
##芦 2370
##芩 2369
##芪 2368
##芫 2367
##芬 2366
##芭 2365
##芮 2364
##芯 2363
##花 2362
##芳 2361
##芷 2360
##芸 2359
##芹 2358
##芻 2357
##芽 2356
##芾 2355
##苁 2354
##苄 2353
##苇 2352
##苋 2351
##苍 2350
##苏 2349
##苑 2348
##苒 2347
##苓 2346
##苔 2345
##苕 2344
##苗 2343
##苛 2342
##苜 2341
##苞 2340
##苟 2339
##苡 2338
##苣 2337
##若 2336
##苦 2335
##苫 2334
##苯 2333
##英 2332
##苷 2331
##苹 2330
##苻 2329
##茁 2328
##茂 2327
##范 2326
##茄 2325
##茅 2324
##茉 2323
##茎 2322
##茏 2321
##茗 2320
##茜 2319
##茧 2318
##茨 2317
##茫 2316
##茬 2315
##茭 2314
##茯 2313
##茱 2312
##茲 2311
##茴 2310
##茵 2309
##茶 2308
##茸 2307
##茹 2306
##茼 2305
##荀 2304
##荃 2303
##荆 2302
##草 2301
##荊 2300
##荏 2299
##荐 2298
##荒 2297
##荔 2296
##荖 2295
##荘 2294
##荚 2293
##荞 2292
##荟 2291
##荠 2290
##荡 2289
##荣 2288
##荤 2287
##荥 2286
##荧 2285
##荨 2284
##荪 2283
##荫 2282
##药 2281
##荳 2280
##荷 2279
##荸 2278
##荻 2277
##荼 2276
##荽 2275
##莅 2274
##莆 2273
##莉 2272
##莊 2271
##莎 2270
##莒 2269
##莓 2268
##莖 2267
##莘 2266
##莞 2265
##莠 2264
##莢 2263
##莧 2262
##莪 2261
##莫 2260
##莱 2259
##莲 2258
##莴 2257
##获 2256
##莹 2255
##莺 2254
##莽 2253
##莿 2252
##菀 2251
##菁 2250
##菅 2249
##菇 2248
##菈 2247
##菊 2246
##菌 2245
##菏 2244
##菓 2243
##菖 2242
##菘 2241
##菜 2240
##菟 2239
##菠 2238
##菡 2237
##菩 2236
##華 2235
##菱 2234
##菲 2233
##菸 2232
##菽 2231
##萁 2230
##萃 2229
##萄 2228
##萊 2227
##萋 2226
##萌 2225
##萍 2224
##萎 2223
##萘 2222
##萝 2221
##萤 2220
##营 2219
##萦 2218
##萧 2217
##萨 2216
##萩 2215
##萬 2214
##萱 2213
##萵 2212
##萸 2211
##萼 2210
##落 2209
##葆 2208
##葉 2207
##著 2206
##葚 2205
##葛 2204
##葡 2203
##董 2202
##葦 2201
##葩 2200
##葫 2199
##葬 2198
##葭 2197
##葯 2196
##葱 2195
##葳 2194
##葵 2193
##葷 2192
##葺 2191
##蒂 2190
##蒋 2189
##蒐 2188
##蒔 2187
##蒙 2186
##蒜 2185
##蒞 2184
##蒟 2183
##蒡 2182
##蒨 2181
##蒲 2180
##蒸 2179
##蒹 2178
##蒻 2177
##蒼 2176
##蒿 2175
##蓁 2174
##蓄 2173
##蓆 2172
##蓉 2171
##蓋 2170
##蓑 2169
##蓓 2168
##蓖 2167
##蓝 2166
##蓟 2165
##蓦 2164
##蓬 2163
##蓮 2162
##蓼 2161
##蓿 2160
##蔑 2159
##蔓 2158
##蔔 2157
##蔗 2156
##蔘 2155
##蔚 2154
##蔡 2153
##蔣 2152
##蔥 2151
##蔫 2150
##蔬 2149
##蔭 2148
##蔵 2147
##蔷 2146
##蔺 2145
##蔻 2144
##蔼 2143
##蔽 2142
##蕁 2141
##蕃 2140
##蕈 2139
##蕉 2138
##蕊 2137
##蕎 2136
##蕙 2135
##蕤 2134
##蕨 2133
##蕩 2132
##蕪 2131
##蕭 2130
##蕲 2129
##蕴 2128
##蕻 2127
##蕾 2126
##薄 2125
##薅 2124
##薇 2123
##薈 2122
##薊 2121
##薏 2120
##薑 2119
##薔 2118
##薙 2117
##薛 2116
##薦 2115
##薨 2114
##薩 2113
##薪 2112
##薬 2111
##薯 2110
##薰 2109
##薹 2108
##藉 2107
##藍 2106
##藏 2105
##藐 2104
##藓 2103
##藕 2102
##藜 2101
##藝 2100
##藤 2099
##藥 2098
##藩 2097
##藹 2096
##藻 2095
##藿 2094
##蘆 2093
##蘇 2092
##蘊 2091
##蘋 2090
##蘑 2089
##蘚 2088
##蘭 2087
##蘸 2086
##蘼 2085
##蘿 2084
##虎 2083
##虏 2082
##虐 2081
##虑 2080
##虔 2079
##處 2078
##虚 2077
##虛 2076
##虜 2075
##虞 2074
##號 2073
##虢 2072
##虧 2071
##虫 2070
##虬 2069
##虱 2068
##虹 2067
##虻 2066
##虽 2065
##虾 2064
##蚀 2063
##蚁 2062
##蚂 2061
##蚊 2060
##蚌 2059
##蚓 2058
##蚕 2057
##蚜 2056
##蚝 2055
##蚣 2054
##蚤 2053
##蚩 2052
##蚪 2051
##蚯 2050
##蚱 2049
##蚵 2048
##蛀 2047
##蛆 2046
##蛇 2045
##蛊 2044
##蛋 2043
##蛎 2042
##蛐 2041
##蛔 2040
##蛙 2039
##蛛 2038
##蛟 2037
##蛤 2036
##蛭 2035
##蛮 2034
##蛰 2033
##蛳 2032
##蛹 2031
##蛻 2030
##蛾 2029
##蜀 2028
##蜂 2027
##蜃 2026
##蜆 2025
##蜇 2024
##蜈 2023
##蜊 2022
##蜍 2021
##蜒 2020
##蜓 2019
##蜕 2018
##蜗 2017
##蜘 2016
##蜚 2015
##蜜 2014
##蜡 2013
##蜢 2012
##蜥 2011
##蜱 2010
##蜴 2009
##蜷 2008
##蜻 2007
##蜿 2006
##蝇 2005
##蝈 2004
##蝉 2003
##蝌 2002
##蝎 2001
##蝕 2000
##蝗 1999
##蝙 1998
##蝟 1997
##蝠 1996
##蝦 1995
##蝨 1994
##蝴 1993
##蝶 1992
##蝸 1991
##蝼 1990
##螂 1989
##螃 1988
##融 1987
##螞 1986
##螢 1985
##螨 1984
##螯 1983
##螳 1982
##螺 1981
##蟀 1980
##蟄 1979
##蟆 1978
##蟋 1977
##蟎 1976
##蟑 1975
##蟒 1974
##蟠 1973
##蟬 1972
##蟲 1971
##蟹 1970
##蟻 1969
##蟾 1968
##蠅 1967
##蠍 1966
##蠔 1965
##蠕 1964
##蠛 1963
##蠟 1962
##蠡 1961
##蠢 1960
##蠣 1959
##蠱 1958
##蠶 1957
##蠹 1956
##蠻 1955
##血 1954
##衄 1953
##衅 1952
##衆 1951
##行 1950
##衍 1949
##術 1948
##衔 1947
##街 1946
##衙 1945
##衛 1944
##衝 1943
##衞 1942
##衡 1941
##衢 1940
##衣 1939
##补 1938
##表 1937
##衩 1936
##衫 1935
##衬 1934
##衮 1933
##衰 1932
##衲 1931
##衷 1930
##衹 1929
##衾 1928
##衿 1927
##袁 1926
##袂 1925
##袄 1924
##袅 1923
##袈 1922
##袋 1921
##袍 1920
##袒 1919
##袖 1918
##袜 1917
##袞 1916
##袤 1915
##袪 1914
##被 1913
##袭 1912
##袱 1911
##裁 1910
##裂 1909
##装 1908
##裆 1907
##裊 1906
##裏 1905
##裔 1904
##裕 1903
##裘 1902
##裙 1901
##補 1900
##裝 1899
##裟 1898
##裡 1897
##裤 1896
##裨 1895
##裱 1894
##裳 1893
##裴 1892
##裸 1891
##裹 1890
##製 1889
##裾 1888
##褂 1887
##複 1886
##褐 1885
##褒 1884
##褓 1883
##褔 1882
##褚 1881
##褥 1880
##褪 1879
##褫 1878
##褲 1877
##褶 1876
##褻 1875
##襁 1874
##襄 1873
##襟 1872
##襠 1871
##襪 1870
##襬 1869
##襯 1868
##襲 1867
##西 1866
##要 1865
##覃 1864
##覆 1863
##覇 1862
##見 1861
##規 1860
##覓 1859
##視 1858
##覚 1857
##覦 1856
##覧 1855
##親 1854
##覬 1853
##観 1852
##覷 1851
##覺 1850
##覽 1849
##觀 1848
##见 1847
##观 1846
##规 1845
##觅 1844
##视 1843
##览 1842
##觉 1841
##觊 1840
##觎 1839
##觐 1838
##觑 1837
##角 1836
##觞 1835
##解 1834
##觥 1833
##触 1832
##觸 1831
##言 1830
##訂 1829
##計 1828
##訊 1827
##討 1826
##訓 1825
##訕 1824
##訖 1823
##託 1822
##記 1821
##訛 1820
##訝 1819
##訟 1818
##訣 1817
##訥 1816
##訪 1815
##設 1814
##許 1813
##訳 1812
##訴 1811
##訶 1810
##診 1809
##註 1808
##証 1807
##詆 1806
##詐 1805
##詔 1804
##評 1803
##詛 1802
##詞 1801
##詠 1800
##詡 1799
##詢 1798
##詣 1797
##試 1796
##詩 1795
##詫 1794
##詬 1793
##詭 1792
##詮 1791
##詰 1790
##話 1789
##該 1788
##詳 1787
##詹 1786
##詼 1785
##誅 1784
##誇 1783
##誉 1782
##誌 1781
##認 1780
##誓 1779
##誕 1778
##誘 1777
##語 1776
##誠 1775
##誡 1774
##誣 1773
##誤 1772
##誥 1771
##誦 1770
##誨 1769
##說 1768
##説 1767
##読 1766
##誰 1765
##課 1764
##誹 1763
##誼 1762
##調 1761
##諄 1760
##談 1759
##請 1758
##諏 1757
##諒 1756
##論 1755
##諗 1754
##諜 1753
##諡 1752
##諦 1751
##諧 1750
##諫 1749
##諭 1748
##諮 1747
##諱 1746
##諳 1745
##諷 1744
##諸 1743
##諺 1742
##諾 1741
##謀 1740
##謁 1739
##謂 1738
##謄 1737
##謊 1736
##謎 1735
##謐 1734
##謔 1733
##謗 1732
##謙 1731
##講 1730
##謝 1729
##謠 1728
##謨 1727
##謬 1726
##謹 1725
##謾 1724
##譁 1723
##證 1722
##譎 1721
##譏 1720
##識 1719
##譙 1718
##譚 1717
##譜 1716
##警 1715
##譬 1714
##譯 1713
##議 1712
##譲 1711
##譴 1710
##護 1709
##譽 1708
##讀 1707
##變 1706
##讓 1705
##讚 1704
##讞 1703
##计 1702
##订 1701
##认 1700
##讥 1699
##讧 1698
##讨 1697
##让 1696
##讪 1695
##讫 1694
##训 1693
##议 1692
##讯 1691
##记 1690
##讲 1689
##讳 1688
##讴 1687
##讶 1686
##讷 1685
##许 1684
##讹 1683
##论 1682
##讼 1681
##讽 1680
##设 1679
##访 1678
##诀 1677
##证 1676
##诃 1675
##评 1674
##诅 1673
##识 1672
##诈 1671
##诉 1670
##诊 1669
##诋 1668
##词 1667
##诏 1666
##译 1665
##试 1664
##诗 1663
##诘 1662
##诙 1661
##诚 1660
##诛 1659
##话 1658
##诞 1657
##诟 1656
##诠 1655
##诡 1654
##询 1653
##诣 1652
##诤 1651
##该 1650
##详 1649
##诧 1648
##诩 1647
##诫 1646
##诬 1645
##语 1644
##误 1643
##诰 1642
##诱 1641
##诲 1640
##说 1639
##诵 1638
##诶 1637
##请 1636
##诸 1635
##诺 1634
##读 1633
##诽 1632
##课 1631
##诿 1630
##谀 1629
##谁 1628
##调 1627
##谄 1626
##谅 1625
##谆 1624
##谈 1623
##谊 1622
##谋 1621
##谌 1620
##谍 1619
##谎 1618
##谏 1617
##谐 1616
##谑 1615
##谒 1614
##谓 1613
##谔 1612
##谕 1611
##谗 1610
##谘 1609
##谙 1608
##谚 1607
##谛 1606
##谜 1605
##谟 1604
##谢 1603
##谣 1602
##谤 1601
##谥 1600
##谦 1599
##谧 1598
##谨 1597
##谩 1596
##谪 1595
##谬 1594
##谭 1593
##谯 1592
##谱 1591
##谲 1590
##谴 1589
##谶 1588
##谷 1587
##豁 1586
##豆 1585
##豇 1584
##豈 1583
##豉 1582
##豊 1581
##豌 1580
##豎 1579
##豐 1578
##豔 1577
##豚 1576
##象 1575
##豢 1574
##豪 1573
##豫 1572
##豬 1571
##豹 1570
##豺 1569
##貂 1568
##貅 1567
##貌 1566
##貓 1565
##貔 1564
##貘 1563
##貝 1562
##貞 1561
##負 1560
##財 1559
##貢 1558
##貧 1557
##貨 1556
##販 1555
##貪 1554
##貫 1553
##責 1552
##貯 1551
##貰 1550
##貳 1549
##貴 1548
##貶 1547
##買 1546
##貸 1545
##費 1544
##貼 1543
##貽 1542
##貿 1541
##賀 1540
##賁 1539
##賂 1538
##賃 1537
##賄 1536
##資 1535
##賈 1534
##賊 1533
##賑 1532
##賓 1531
##賜 1530
##賞 1529
##賠 1528
##賡 1527
##賢 1526
##賣 1525
##賤 1524
##賦 1523
##質 1522
##賬 1521
##賭 1520
##賴 1519
##賺 1518
##購 1517
##賽 1516
##贅 1515
##贈 1514
##贊 1513
##贍 1512
##贏 1511
##贓 1510
##贖 1509
##贛 1508
##贝 1507
##贞 1506
##负 1505
##贡 1504
##财 1503
##责 1502
##贤 1501
##败 1500
##账 1499
##货 1498
##质 1497
##贩 1496
##贪 1495
##贫 1494
##贬 1493
##购 1492
##贮 1491
##贯 1490
##贰 1489
##贱 1488
##贲 1487
##贴 1486
##贵 1485
##贷 1484
##贸 1483
##费 1482
##贺 1481
##贻 1480
##贼 1479
##贾 1478
##贿 1477
##赁 1476
##赂 1475
##赃 1474
##资 1473
##赅 1472
##赈 1471
##赊 1470
##赋 1469
##赌 1468
##赎 1467
##赏 1466
##赐 1465
##赓 1464
##赔 1463
##赖 1462
##赘 1461
##赚 1460
##赛 1459
##赝 1458
##赞 1457
##赠 1456
##赡 1455
##赢 1454
##赣 1453
##赤 1452
##赦 1451
##赧 1450
##赫 1449
##赭 1448
##走 1447
##赳 1446
##赴 1445
##赵 1444
##赶 1443
##起 1442
##趁 1441
##超 1440
##越 1439
##趋 1438
##趕 1437
##趙 1436
##趟 1435
##趣 1434
##趨 1433
##足 1432
##趴 1431
##趵 1430
##趸 1429
##趺 1428
##趾 1427
##跃 1426
##跄 1425
##跆 1424
##跋 1423
##跌 1422
##跎 1421
##跑 1420
##跖 1419
##跚 1418
##跛 1417
##距 1416
##跟 1415
##跡 1414
##跤 1413
##跨 1412
##跩 1411
##跪 1410
##路 1409
##跳 1408
##践 1407
##跷 1406
##跹 1405
##跺 1404
##跻 1403
##踉 1402
##踊 1401
##踌 1400
##踏 1399
##踐 1398
##踝 1397
##踞 1396
##踟 1395
##踢 1394
##踩 1393
##踪 1392
##踮 1391
##踱 1390
##踴 1389
##踵 1388
##踹 1387
##蹂 1386
##蹄 1385
##蹇 1384
##蹈 1383
##蹉 1382
##蹊 1381
##蹋 1380
##蹑 1379
##蹒 1378
##蹙 1377
##蹟 1376
##蹣 1375
##蹤 1374
##蹦 1373
##蹩 1372
##蹬 1371
##蹭 1370
##蹲 1369
##蹴 1368
##蹶 1367
##蹺 1366
##蹼 1365
##蹿 1364
##躁 1363
##躇 1362
##躉 1361
##躊 1360
##躋 1359
##躍 1358
##躏 1357
##躪 1356
##身 1355
##躬 1354
##躯 1353
##躲 1352
##躺 1351
##軀 1350
##車 1349
##軋 1348
##軌 1347
##軍 1346
##軒 1345
##軟 1344
##転 1343
##軸 1342
##軼 1341
##軽 1340
##軾 1339
##較 1338
##載 1337
##輒 1336
##輓 1335
##輔 1334
##輕 1333
##輛 1332
##輝 1331
##輟 1330
##輩 1329
##輪 1328
##輯 1327
##輸 1326
##輻 1325
##輾 1324
##輿 1323
##轄 1322
##轅 1321
##轆 1320
##轉 1319
##轍 1318
##轎 1317
##轟 1316
##车 1315
##轧 1314
##轨 1313
##轩 1312
##转 1311
##轭 1310
##轮 1309
##软 1308
##轰 1307
##轲 1306
##轴 1305
##轶 1304
##轻 1303
##轼 1302
##载 1301
##轿 1300
##较 1299
##辄 1298
##辅 1297
##辆 1296
##辇 1295
##辈 1294
##辉 1293
##辊 1292
##辍 1291
##辐 1290
##辑 1289
##输 1288
##辕 1287
##辖 1286
##辗 1285
##辘 1284
##辙 1283
##辛 1282
##辜 1281
##辞 1280
##辟 1279
##辣 1278
##辦 1277
##辨 1276
##辩 1275
##辫 1274
##辭 1273
##辮 1272
##辯 1271
##辰 1270
##辱 1269
##農 1268
##边 1267
##辺 1266
##辻 1265
##込 1264
##辽 1263
##达 1262
##迁 1261
##迂 1260
##迄 1259
##迅 1258
##过 1257
##迈 1256
##迎 1255
##运 1254
##近 1253
##返 1252
##还 1251
##这 1250
##进 1249
##远 1248
##违 1247
##连 1246
##迟 1245
##迢 1244
##迤 1243
##迥 1242
##迦 1241
##迩 1240
##迪 1239
##迫 1238
##迭 1237
##述 1236
##迴 1235
##迷 1234
##迸 1233
##迹 1232
##迺 1231
##追 1230
##退 1229
##送 1228
##适 1227
##逃 1226
##逅 1225
##逆 1224
##选 1223
##逊 1222
##逍 1221
##透 1220
##逐 1219
##递 1218
##途 1217
##逕 1216
##逗 1215
##這 1214
##通 1213
##逛 1212
##逝 1211
##逞 1210
##速 1209
##造 1208
##逢 1207
##連 1206
##逮 1205
##週 1204
##進 1203
##逵 1202
##逶 1201
##逸 1200
##逻 1199
##逼 1198
##逾 1197
##遁 1196
##遂 1195
##遅 1194
##遇 1193
##遊 1192
##運 1191
##遍 1190
##過 1189
##遏 1188
##遐 1187
##遑 1186
##遒 1185
##道 1184
##達 1183
##違 1182
##遗 1181
##遙 1180
##遛 1179
##遜 1178
##遞 1177
##遠 1176
##遢 1175
##遣 1174
##遥 1173
##遨 1172
##適 1171
##遭 1170
##遮 1169
##遲 1168
##遴 1167
##遵 1166
##遶 1165
##遷 1164
##選 1163
##遺 1162
##遼 1161
##遽 1160
##避 1159
##邀 1158
##邁 1157
##邂 1156
##邃 1155
##還 1154
##邇 1153
##邈 1152
##邊 1151
##邋 1150
##邏 1149
##邑 1148
##邓 1147
##邕 1146
##邛 1145
##邝 1144
##邢 1143
##那 1142
##邦 1141
##邨 1140
##邪 1139
##邬 1138
##邮 1137
##邯 1136
##邰 1135
##邱 1134
##邳 1133
##邵 1132
##邸 1131
##邹 1130
##邺 1129
##邻 1128
##郁 1127
##郅 1126
##郊 1125
##郎 1124
##郑 1123
##郜 1122
##郝 1121
##郡 1120
##郢 1119
##郤 1118
##郦 1117
##郧 1116
##部 1115
##郫 1114
##郭 1113
##郴 1112
##郵 1111
##郷 1110
##郸 1109
##都 1108
##鄂 1107
##鄉 1106
##鄒 1105
##鄔 1104
##鄙 1103
##鄞 1102
##鄢 1101
##鄧 1100
##鄭 1099
##鄰 1098
##鄱 1097
##鄲 1096
##鄺 1095
##酉 1094
##酊 1093
##酋 1092
##酌 1091
##配 1090
##酐 1089
##酒 1088
##酗 1087
##酚 1086
##酝 1085
##酢 1084
##酣 1083
##酥 1082
##酩 1081
##酪 1080
##酬 1079
##酮 1078
##酯 1077
##酰 1076
##酱 1075
##酵 1074
##酶 1073
##酷 1072
##酸 1071
##酿 1070
##醃 1069
##醇 1068
##醉 1067
##醋 1066
##醍 1065
##醐 1064
##醒 1063
##醚 1062
##醛 1061
##醜 1060
##醞 1059
##醣 1058
##醪 1057
##醫 1056
##醬 1055
##醮 1054
##醯 1053
##醴 1052
##醺 1051
##釀 1050
##釁 1049
##采 1048
##釉 1047
##释 1046
##釋 1045
##里 1044
##重 1043
##野 1042
##量 1041
##釐 1040
##金 1039
##釗 1038
##釘 1037
##釜 1036
##針 1035
##釣 1034
##釦 1033
##釧 1032
##釵 1031
##鈀 1030
##鈉 1029
##鈍 1028
##鈎 1027
##鈔 1026
##鈕 1025
##鈞 1024
##鈣 1023
##鈦 1022
##鈪 1021
##鈴 1020
##鈺 1019
##鈾 1018
##鉀 1017
##鉄 1016
##鉅 1015
##鉉 1014
##鉑 1013
##鉗 1012
##鉚 1011
##鉛 1010
##鉤 1009
##鉴 1008
##鉻 1007
##銀 1006
##銃 1005
##銅 1004
##銑 1003
##銓 1002
##銖 1001
##銘 1000
##銜 999
##銬 998
##銭 997
##銮 996
##銳 995
##銷 994
##銹 993
##鋁 992
##鋅 991
##鋒 990
##鋤 989
##鋪 988
##鋰 987
##鋸 986
##鋼 985
##錄 984
##錐 983
##錘 982
##錚 981
##錠 980
##錢 979
##錦 978
##錨 977
##錫 976
##錮 975
##錯 974
##録 973
##錳 972
##錶 971
##鍊 970
##鍋 969
##鍍 968
##鍛 967
##鍥 966
##鍰 965
##鍵 964
##鍺 963
##鍾 962
##鎂 961
##鎊 960
##鎌 959
##鎏 958
##鎔 957
##鎖 956
##鎗 955
##鎚 954
##鎧 953
##鎬 952
##鎮 951
##鎳 950
##鏈 949
##鏖 948
##鏗 947
##鏘 946
##鏞 945
##鏟 944
##鏡 943
##鏢 942
##鏤 941
##鏽 940
##鐘 939
##鐮 938
##鐲 937
##鐳 936
##鐵 935
##鐸 934
##鐺 933
##鑄 932
##鑊 931
##鑑 930
##鑒 929
##鑣 928
##鑫 927
##鑰 926
##鑲 925
##鑼 924
##鑽 923
##鑾 922
##鑿 921
##针 920
##钉 919
##钊 918
##钎 917
##钏 916
##钒 915
##钓 914
##钗 913
##钙 912
##钛 911
##钜 910
##钝 909
##钞 908
##钟 907
##钠 906
##钡 905
##钢 904
##钣 903
##钤 902
##钥 901
##钦 900
##钧 899
##钨 898
##钩 897
##钮 896
##钯 895
##钰 894
##钱 893
##钳 892
##钴 891
##钵 890
##钺 889
##钻 888
##钼 887
##钾 886
##钿 885
##铀 884
##铁 883
##铂 882
##铃 881
##铄 880
##铅 879
##铆 878
##铉 877
##铎 876
##铐 875
##铛 874
##铜 873
##铝 872
##铠 871
##铡 870
##铢 869
##铣 868
##铤 867
##铨 866
##铩 865
##铬 864
##铭 863
##铮 862
##铰 861
##铲 860
##铵 859
##银 858
##铸 857
##铺 856
##链 855
##铿 854
##销 853
##锁 852
##锂 851
##锄 850
##锅 849
##锆 848
##锈 847
##锉 846
##锋 845
##锌 844
##锏 843
##锐 842
##锑 841
##错 840
##锚 839
##锟 838
##锡 837
##锢 836
##锣 835
##锤 834
##锥 833
##锦 832
##锭 831
##键 830
##锯 829
##锰 828
##锲 827
##锵 826
##锹 825
##锺 824
##锻 823
##镀 822
##镁 821
##镂 820
##镇 819
##镉 818
##镌 817
##镍 816
##镐 815
##镑 814
##镕 813
##镖 812
##镗 811
##镛 810
##镜 809
##镣 808
##镭 807
##镯 806
##镰 805
##镳 804
##镶 803
##長 802
##长 801
##門 800
##閃 799
##閉 798
##開 797
##閎 796
##閏 795
##閑 794
##閒 793
##間 792
##閔 791
##閘 790
##閡 789
##関 788
##閣 787
##閥 786
##閨 785
##閩 784
##閱 783
##閲 782
##閹 781
##閻 780
##閾 779
##闆 778
##闇 777
##闊 776
##闌 775
##闍 774
##闔 773
##闕 772
##闖 771
##闘 770
##關 769
##闡 768
##闢 767
##门 766
##闪 765
##闫 764
##闭 763
##问 762
##闯 761
##闰 760
##闲 759
##间 758
##闵 757
##闷 756
##闸 755
##闹 754
##闺 753
##闻 752
##闽 751
##闾 750
##阀 749
##阁 748
##阂 747
##阅 746
##阆 745
##阇 744
##阈 743
##阉 742
##阎 741
##阐 740
##阑 739
##阔 738
##阕 737
##阖 736
##阙 735
##阚 734
##阜 733
##队 732
##阡 731
##阪 730
##阮 729
##阱 728
##防 727
##阳 726
##阴 725
##阵 724
##阶 723
##阻 722
##阿 721
##陀 720
##陂 719
##附 718
##际 717
##陆 716
##陇 715
##陈 714
##陋 713
##陌 712
##降 711
##限 710
##陕 709
##陛 708
##陝 707
##陞 706
##陟 705
##陡 704
##院 703
##陣 702
##除 701
##陨 700
##险 699
##陪 698
##陰 697
##陲 696
##陳 695
##陵 694
##陶 693
##陷 692
##陸 691
##険 690
##陽 689
##隅 688
##隆 687
##隈 686
##隊 685
##隋 684
##隍 683
##階 682
##随 681
##隐 680
##隔 679
##隕 678
##隘 677
##隙 676
##際 675
##障 674
##隠 673
##隣 672
##隧 671
##隨 670
##險 669
##隱 668
##隴 667
##隶 666
##隸 665
##隻 664
##隼 663
##隽 662
##难 661
##雀 660
##雁 659
##雄 658
##雅 657
##集 656
##雇 655
##雉 654
##雋 653
##雌 652
##雍 651
##雎 650
##雏 649
##雑 648
##雒 647
##雕 646
##雖 645
##雙 644
##雛 643
##雜 642
##雞 641
##離 640
##難 639
##雨 638
##雪 637
##雯 636
##雰 635
##雲 634
##雳 633
##零 632
##雷 631
##雹 630
##電 629
##雾 628
##需 627
##霁 626
##霄 625
##霆 624
##震 623
##霈 622
##霉 621
##霊 620
##霍 619
##霎 618
##霏 617
##霑 616
##霓 615
##霖 614
##霜 613
##霞 612
##霧 611
##霭 610
##霰 609
##露 608
##霸 607
##霹 606
##霽 605
##霾 604
##靂 603
##靄 602
##靈 601
##青 600
##靓 599
##靖 598
##静 597
##靚 596
##靛 595
##靜 594
##非 593
##靠 592
##靡 591
##面 590
##靥 589
##靦 588
##革 587
##靳 586
##靴 585
##靶 584
##靼 583
##鞅 582
##鞋 581
##鞍 580
##鞏 579
##鞑 578
##鞘 577
##鞠 576
##鞣 575
##鞦 574
##鞭 573
##韆 572
##韋 571
##韌 570
##韓 569
##韜 568
##韦 567
##韧 566
##韩 565
##韬 564
##韭 563
##音 562
##韵 561
##韶 560
##韻 559
##響 558
##頁 557
##頂 556
##頃 555
##項 554
##順 553
##須 552
##頌 551
##預 550
##頑 549
##頒 548
##頓 547
##頗 546
##領 545
##頜 544
##頡 543
##頤 542
##頫 541
##頭 540
##頰 539
##頷 538
##頸 537
##頹 536
##頻 535
##頼 534
##顆 533
##題 532
##額 531
##顎 530
##顏 529
##顔 528
##願 527
##顛 526
##類 525
##顧 524
##顫 523
##顯 522
##顱 521
##顴 520
##页 519
##顶 518
##顷 517
##项 516
##顺 515
##须 514
##顼 513
##顽 512
##顾 511
##顿 510
##颁 509
##颂 508
##预 507
##颅 506
##领 505
##颇 504
##颈 503
##颉 502
##颊 501
##颌 500
##颍 499
##颐 498
##频 497
##颓 496
##颔 495
##颖 494
##颗 493
##题 492
##颚 491
##颛 490
##颜 489
##额 488
##颞 487
##颠 486
##颡 485
##颢 484
##颤 483
##颦 482
##颧 481
##風 480
##颯 479
##颱 478
##颳 477
##颶 476
##颼 475
##飄 474
##飆 473
##风 472
##飒 471
##飓 470
##飕 469
##飘 468
##飙 467
##飚 466
##飛 465
##飞 464
##食 463
##飢 462
##飨 461
##飩 460
##飪 459
##飯 458
##飲 457
##飼 456
##飽 455
##飾 454
##餃 453
##餅 452
##餉 451
##養 450
##餌 449
##餐 448
##餒 447
##餓 446
##餘 445
##餚 444
##餛 443
##餞 442
##餡 441
##館 440
##餮 439
##餵 438
##餾 437
##饅 436
##饈 435
##饋 434
##饌 433
##饍 432
##饑 431
##饒 430
##饕 429
##饗 428
##饞 427
##饥 426
##饨 425
##饪 424
##饬 423
##饭 422
##饮 421
##饯 420
##饰 419
##饱 418
##饲 417
##饴 416
##饵 415
##饶 414
##饷 413
##饺 412
##饼 411
##饽 410
##饿 409
##馀 408
##馁 407
##馄 406
##馅 405
##馆 404
##馈 403
##馋 402
##馍 401
##馏 400
##馒 399
##馔 398
##首 397
##馗 396
##香 395
##馥 394
##馨 393
##馬 392
##馭 391
##馮 390
##馳 389
##馴 388
##駁 387
##駄 386
##駅 385
##駆 384
##駐 383
##駒 382
##駕 381
##駛 380
##駝 379
##駭 378
##駱 377
##駿 376
##騁 375
##騎 374
##騏 373
##験 372
##騙 371
##騨 370
##騰 369
##騷 368
##驀 367
##驅 366
##驊 365
##驍 364
##驒 363
##驕 362
##驗 361
##驚 360
##驛 359
##驟 358
##驢 357
##驥 356
##马 355
##驭 354
##驮 353
##驯 352
##驰 351
##驱 350
##驳 349
##驴 348
##驶 347
##驷 346
##驸 345
##驹 344
##驻 343
##驼 342
##驾 341
##驿 340
##骁 339
##骂 338
##骄 337
##骅 336
##骆 335
##骇 334
##骈 333
##骊 332
##骋 331
##验 330
##骏 329
##骐 328
##骑 327
##骗 326
##骚 325
##骛 324
##骜 323
##骞 322
##骠 321
##骡 320
##骤 319
##骥 318
##骧 317
##骨 316
##骯 315
##骰 314
##骶 313
##骷 312
##骸 311
##骼 310
##髂 309
##髅 308
##髋 307
##髏 306
##髒 305
##髓 304
##體 303
##髖 302
##高 301
##髦 300
##髪 299
##髮 298
##髯 297
##髻 296
##鬃 295
##鬆 294
##鬍 293
##鬓 292
##鬚 291
##鬟 290
##鬢 289
##鬣 288
##鬥 287
##鬧 286
##鬱 285
##鬼 284
##魁 283
##魂 282
##魄 281
##魅 280
##魇 279
##魍 278
##魏 277
##魔 276
##魘 275
##魚 274
##魯 273
##魷 272
##鮑 271
##鮨 270
##鮪 269
##鮭 268
##鮮 267
##鯉 266
##鯊 265
##鯖 264
##鯛 263
##鯨 262
##鯰 261
##鯽 260
##鰍 259
##鰓 258
##鰭 257
##鰲 256
##鰻 255
##鰾 254
##鱈 253
##鱉 252
##鱔 251
##鱗 250
##鱷 249
##鱸 248
##鱼 247
##鱿 246
##鲁 245
##鲈 244
##鲍 243
##鲑 242
##鲛 241
##鲜 240
##鲟 239
##鲢 238
##鲤 237
##鲨 236
##鲫 235
##鲱 234
##鲲 233
##鲶 232
##鲷 231
##鲸 230
##鳃 229
##鳄 228
##鳅 227
##鳌 226
##鳍 225
##鳕 224
##鳖 223
##鳗 222
##鳝 221
##鳞 220
##鳥 219
##鳩 218
##鳳 217
##鳴 216
##鳶 215
##鴉 214
##鴕 213
##鴛 212
##鴦 211
##鴨 210
##鴻 209
##鴿 208
##鵑 207
##鵜 206
##鵝 205
##鵡 204
##鵬 203
##鵰 202
##鵲 201
##鶘 200
##鶩 199
##鶯 198
##鶴 197
##鷗 196
##鷲 195
##鷹 194
##鷺 193
##鸚 192
##鸞 191
##鸟 190
##鸠 189
##鸡 188
##鸢 187
##鸣 186
##鸥 185
##鸦 184
##鸨 183
##鸪 182
##鸭 181
##鸯 180
##鸳 179
##鸵 178
##鸽 177
##鸾 176
##鸿 175
##鹂 174
##鹃 173
##鹄 172
##鹅 171
##鹈 170
##鹉 169
##鹊 168
##鹌 167
##鹏 166
##鹑 165
##鹕 164
##鹘 163
##鹜 162
##鹞 161
##鹤 160
##鹦 159
##鹧 158
##鹫 157
##鹭 156
##鹰 155
##鹳 154
##鹵 153
##鹹 152
##鹼 151
##鹽 150
##鹿 149
##麂 148
##麋 147
##麒 146
##麓 145
##麗 144
##麝 143
##麟 142
##麥 141
##麦 140
##麩 139
##麴 138
##麵 137
##麸 136
##麺 135
##麻 134
##麼 133
##麽 132
##麾 131
##黃 130
##黄 129
##黍 128
##黎 127
##黏 126
##黑 125
##黒 124
##黔 123
##默 122
##黛 121
##黜 120
##黝 119
##點 118
##黠 117
##黨 116
##黯 115
##黴 114
##鼋 113
##鼎 112
##鼐 111
##鼓 110
##鼠 109
##鼬 108
##鼹 107
##鼻 106
##鼾 105
##齁 104
##齊 103
##齋 102
##齐 101
##齒 100
##齡 99
##齢 98
##齣 97
##齦 96
##齿 95
##龄 94
##龅 93
##龈 92
##龊 91
##龋 90
##龌 89
##龍 88
##龐 87
##龔 86
##龕 85
##龙 84
##龚 83
##龛 82
##龜 81
##龟 80
##︰ 79
##︱ 78
##︶ 77
##︿ 76
##﹁ 75
##﹂ 74
##﹍ 73
##﹏ 72
##﹐ 71
##﹑ 70
##﹒ 69
##﹔ 68
##﹕ 67
##﹖ 66
##﹗ 65
##﹙ 64
##﹚ 63
##﹝ 62
##﹞ 61
##﹡ 60
##﹣ 59
##！ 58
##＂ 57
##＃ 56
##＄ 55
##％ 54
##＆ 53
##＇ 52
##（ 51
##） 50
##＊ 49
##， 48
##－ 47
##． 46
##／ 45
##： 44
##； 43
##＜ 42
##？ 41
##＠ 40
##［ 39
##＼ 38
##］ 37
##＾ 36
##＿ 35
##｀ 34
##ｆ 33
##ｈ 32
##ｊ 31
##ｕ 30
##ｗ 29
##ｚ 28
##｛ 27
##｝ 26
##｡ 25
##｢ 24
##｣ 23
##､ 22
##･ 21
##ｯ 20
##ｰ 19
##ｲ 18
##ｸ 17
##ｼ 16
##ｽ 15
##ﾄ 14
##ﾉ 13
##ﾌ 12
##ﾗ 11
##ﾙ 10
##ﾝ 9
##ﾞ 8
##ﾟ 7
##￣ 6
##￥ 5
##👍 4
##🔥 3
##😂 2
##😎 1
